unsigned char conv_mnist_quant_tflite[] = {
  0x1c, 0x00, 0x00, 0x00, 0x54, 0x46, 0x4c, 0x33, 0x00, 0x00, 0x12, 0x00,
  0x1c, 0x00, 0x18, 0x00, 0x14, 0x00, 0x10, 0x00, 0x0c, 0x00, 0x08, 0x00,
  0x00, 0x00, 0x04, 0x00, 0x12, 0x00, 0x00, 0x00, 0x18, 0x00, 0x00, 0x00,
  0x48, 0x00, 0x00, 0x00, 0x80, 0x21, 0x00, 0x00, 0x90, 0x21, 0x00, 0x00,
  0x68, 0x2d, 0x00, 0x00, 0x03, 0x00, 0x00, 0x00, 0x01, 0x00, 0x00, 0x00,
  0x0c, 0x00, 0x00, 0x00, 0x08, 0x00, 0x0c, 0x00, 0x08, 0x00, 0x04, 0x00,
  0x08, 0x00, 0x00, 0x00, 0x0f, 0x00, 0x00, 0x00, 0x04, 0x00, 0x00, 0x00,
  0x13, 0x00, 0x00, 0x00, 0x6d, 0x69, 0x6e, 0x5f, 0x72, 0x75, 0x6e, 0x74,
  0x69, 0x6d, 0x65, 0x5f, 0x76, 0x65, 0x72, 0x73, 0x69, 0x6f, 0x6e, 0x00,
  0x10, 0x00, 0x00, 0x00, 0x34, 0x21, 0x00, 0x00, 0x2c, 0x21, 0x00, 0x00,
  0xfc, 0x20, 0x00, 0x00, 0xdc, 0x20, 0x00, 0x00, 0xc4, 0x20, 0x00, 0x00,
  0x8c, 0x20, 0x00, 0x00, 0xdc, 0x01, 0x00, 0x00, 0x84, 0x01, 0x00, 0x00,
  0x54, 0x00, 0x00, 0x00, 0x4c, 0x00, 0x00, 0x00, 0x44, 0x00, 0x00, 0x00,
  0x3c, 0x00, 0x00, 0x00, 0x34, 0x00, 0x00, 0x00, 0x2c, 0x00, 0x00, 0x00,
  0x24, 0x00, 0x00, 0x00, 0x04, 0x00, 0x00, 0x00, 0x82, 0xde, 0xff, 0xff,
  0x04, 0x00, 0x00, 0x00, 0x10, 0x00, 0x00, 0x00, 0x31, 0x2e, 0x35, 0x2e,
  0x30, 0x00, 0x00, 0x00, 0x00, 0x00, 0x00, 0x00, 0x00, 0x00, 0x00, 0x00,
  0xa4, 0xd5, 0xff, 0xff, 0xa8, 0xd5, 0xff, 0xff, 0xac, 0xd5, 0xff, 0xff,
  0xb0, 0xd5, 0xff, 0xff, 0xb4, 0xd5, 0xff, 0xff, 0xb8, 0xd5, 0xff, 0xff,
  0xb6, 0xde, 0xff, 0xff, 0x04, 0x00, 0x00, 0x00, 0x20, 0x01, 0x00, 0x00,
  0xe0, 0x0f, 0xe1, 0x06, 0x30, 0x53, 0x13, 0x03, 0xd2, 0x30, 0x18, 0xb9,
  0x23, 0x11, 0x03, 0xee, 0x1b, 0x0b, 0x0b, 0xe1, 0x2f, 0x19, 0xea, 0xe9,
  0x28, 0xce, 0xe1, 0x3f, 0x37, 0xb0, 0x18, 0xf5, 0x4d, 0xdb, 0xde, 0x41,
  0xfc, 0x09, 0x34, 0x11, 0x4d, 0x04, 0x81, 0x5f, 0x41, 0xb6, 0x3b, 0x06,
  0x07, 0x9e, 0x0f, 0x37, 0xf5, 0xfa, 0xaa, 0xa2, 0x54, 0x84, 0x3f, 0x28,
  0x4d, 0x25, 0x05, 0xc0, 0x2d, 0x9f, 0xb8, 0x1f, 0xf6, 0x06, 0xec, 0x25,
  0xea, 0xba, 0x16, 0xfa, 0x23, 0x81, 0xae, 0xa1, 0xfb, 0xaa, 0x04, 0x08,
  0xec, 0xbf, 0xed, 0xea, 0xc1, 0xf9, 0xfc, 0xee, 0xb6, 0xc5, 0xfd, 0xf0,
  0xe2, 0x01, 0x0e, 0x09, 0x27, 0x2f, 0x0c, 0xd2, 0x19, 0x19, 0xf4, 0xff,
  0x06, 0x19, 0xee, 0xc7, 0x5c, 0x03, 0x17, 0x2e, 0xfb, 0xff, 0xf0, 0x03,
  0x05, 0xd8, 0x0a, 0xfe, 0x01, 0x24, 0x08, 0x01, 0x2c, 0x0a, 0xf8, 0x3a,
  0xf8, 0x0b, 0xf0, 0x29, 0x34, 0xec, 0xf2, 0x15, 0xea, 0xf9, 0xef, 0x10,
  0xf4, 0xde, 0xfa, 0x24, 0x04, 0xa3, 0xe8, 0x04, 0xe5, 0x19, 0xbe, 0x81,
  0xf1, 0xe7, 0x08, 0x07, 0xfb, 0x15, 0x29, 0x93, 0xcb, 0x41, 0xda, 0x3f,
  0xdb, 0xf7, 0x08, 0x10, 0x42, 0xb0, 0x26, 0xdf, 0x8a, 0x10, 0xe6, 0xee,
  0x48, 0x1a, 0x4b, 0xfe, 0xc5, 0x28, 0x23, 0xa3, 0x1a, 0x19, 0x58, 0x17,
  0xfc, 0x0d, 0x19, 0xeb, 0x2d, 0x16, 0x58, 0xcb, 0xfb, 0x1b, 0xd8, 0xbe,
  0xf8, 0x23, 0x2e, 0x16, 0x0a, 0x06, 0xa7, 0xcd, 0xbe, 0x0d, 0x12, 0x22,
  0xd2, 0x2a, 0x03, 0xcf, 0x9c, 0xf0, 0xd9, 0x3a, 0x14, 0xf8, 0x11, 0xd5,
  0xa8, 0x26, 0xde, 0x2e, 0x4c, 0xed, 0xeb, 0x29, 0xe5, 0x15, 0x15, 0x38,
  0xd9, 0x06, 0x22, 0xe2, 0xbb, 0x81, 0x04, 0x41, 0x2c, 0xe4, 0xdb, 0xfd,
  0xc0, 0xfa, 0xce, 0x1f, 0x5a, 0xbc, 0x06, 0x09, 0xdc, 0x08, 0xda, 0x14,
  0x27, 0x27, 0xf8, 0xf0, 0xd5, 0xb9, 0x09, 0x37, 0x04, 0x25, 0xea, 0xf9,
  0xec, 0x1d, 0xed, 0x2f, 0x04, 0xc3, 0x0d, 0x13, 0xfc, 0x1a, 0x01, 0x19,
  0xe2, 0xdf, 0xff, 0xff, 0x04, 0x00, 0x00, 0x00, 0x48, 0x00, 0x00, 0x00,
  0x28, 0xca, 0x8d, 0x72, 0x7f, 0x07, 0xc9, 0x08, 0x59, 0xbc, 0x06, 0x7f,
  0xb5, 0x25, 0x11, 0xe0, 0x6d, 0x6b, 0x81, 0xc7, 0xcd, 0x1e, 0xbc, 0xb2,
  0xbe, 0x16, 0x19, 0x1e, 0xb5, 0x8c, 0x30, 0xb8, 0x03, 0x49, 0x69, 0x7f,
  0xdb, 0x9b, 0x0b, 0xed, 0x20, 0x7f, 0x69, 0x27, 0xbc, 0xb7, 0x2b, 0xe3,
  0x5f, 0x66, 0x81, 0x5f, 0xfa, 0x8d, 0x81, 0x69, 0x56, 0x6d, 0x51, 0x06,
  0x65, 0x08, 0xd1, 0xf1, 0x38, 0x35, 0xcc, 0xde, 0x28, 0x10, 0xc4, 0x7f,
  0x36, 0xe0, 0xff, 0xff, 0x04, 0x00, 0x00, 0x00, 0xa0, 0x1e, 0x00, 0x00,
  0x00, 0x02, 0xf4, 0xff, 0xfd, 0xfd, 0xfd, 0x01, 0xfc, 0xee, 0x03, 0x04,
  0xdf, 0x01, 0xf2, 0xe6, 0xf1, 0x04, 0xe0, 0x04, 0x0e, 0xfe, 0xd9, 0xfa,
  0x0d, 0xfb, 0xef, 0xf9, 0xef, 0xfb, 0xda, 0xfc, 0x04, 0x09, 0xf3, 0x00,
  0x02, 0xf5, 0xe0, 0xfd, 0x03, 0xf9, 0xfd, 0xf8, 0x0b, 0x0c, 0xfd, 0x0a,
  0xf8, 0xfd, 0x02, 0xf6, 0xf2, 0x01, 0x02, 0xf6, 0xf9, 0xf9, 0xff, 0xfb,
  0xf8, 0xf7, 0x00, 0x02, 0xe3, 0x03, 0xe2, 0x03, 0xfc, 0xfe, 0xd9, 0xe8,
  0x16, 0x03, 0xda, 0xf4, 0x02, 0xf5, 0xf7, 0xfd, 0xfc, 0x01, 0x01, 0x01,
  0xf9, 0xfc, 0xf8, 0xf8, 0xf2, 0xf7, 0xe0, 0x0d, 0x03, 0xfc, 0xf1, 0xec,
  0x0e, 0xf8, 0xf4, 0x0b, 0x06, 0xfd, 0xfa, 0xe3, 0xe0, 0xff, 0x0a, 0xf9,
  0xed, 0x01, 0xd0, 0xf5, 0xf6, 0x02, 0xfd, 0x05, 0xe7, 0x03, 0xea, 0xfc,
  0x00, 0x01, 0xe8, 0xef, 0xeb, 0xfe, 0xf7, 0xee, 0xf8, 0xf9, 0xde, 0xf6,
  0x00, 0xf7, 0xea, 0xfb, 0xf9, 0xff, 0xef, 0x00, 0x02, 0x03, 0xfa, 0xf2,
  0xfa, 0x01, 0xee, 0x03, 0xfc, 0x01, 0xf7, 0xec, 0x06, 0x01, 0xeb, 0x04,
  0x13, 0x04, 0xfe, 0xf0, 0xeb, 0x08, 0xfa, 0x04, 0xd3, 0x05, 0xef, 0xf7,
  0xfa, 0xf8, 0xea, 0xfd, 0xe1, 0xf4, 0xef, 0xe8, 0xf8, 0xfc, 0xf5, 0xf0,
  0x00, 0x06, 0xff, 0xf1, 0xf8, 0xf8, 0xfb, 0xf6, 0x0b, 0xfb, 0xfc, 0xf4,
  0xfe, 0xfc, 0xff, 0xfe, 0x07, 0x06, 0x01, 0xf5, 0x07, 0x05, 0xff, 0xf4,
  0x0e, 0xff, 0xfb, 0x04, 0x08, 0xfb, 0xfd, 0x05, 0x00, 0xf6, 0xe6, 0xf9,
  0x08, 0x00, 0xe4, 0x07, 0xdf, 0x01, 0xe0, 0xf8, 0x0d, 0x02, 0xee, 0xed,
  0xdd, 0xfa, 0x07, 0xe8, 0xec, 0x01, 0xfc, 0xf1, 0x06, 0xfc, 0x04, 0x02,
  0xe6, 0x04, 0x09, 0xf2, 0xfd, 0x0e, 0xfb, 0xf1, 0xfd, 0x02, 0x04, 0xf3,
  0x01, 0x02, 0x08, 0xf5, 0xf9, 0x04, 0x07, 0xfb, 0x00, 0xfe, 0xec, 0x10,
  0x06, 0x04, 0xe2, 0x01, 0x07, 0xf6, 0xd3, 0x12, 0xf6, 0xf3, 0xdb, 0xfd,
  0x00, 0xed, 0xdf, 0xe7, 0x0c, 0x0d, 0xfd, 0xf1, 0xdb, 0x06, 0x07, 0x02,
  0xeb, 0xf9, 0x02, 0xec, 0xfb, 0xfc, 0x06, 0x09, 0xea, 0x05, 0x04, 0xfc,
  0xf4, 0x08, 0xff, 0xfa, 0xf4, 0xcb, 0x07, 0x03, 0xf7, 0xfb, 0x08, 0x0d,
  0xf2, 0xfa, 0xf4, 0x13, 0xf9, 0x01, 0xf5, 0x10, 0xff, 0xfb, 0x04, 0x1c,
  0x09, 0xf5, 0x09, 0x0f, 0xfc, 0xfe, 0x05, 0x23, 0xf4, 0xfd, 0xd5, 0xf1,
  0x0a, 0x02, 0xf2, 0xed, 0xf6, 0xfa, 0x0a, 0x05, 0xe0, 0x04, 0x0e, 0xfe,
  0xe9, 0xf4, 0x0c, 0x0b, 0xf6, 0xeb, 0x0c, 0x03, 0xf5, 0xe1, 0x08, 0xff,
  0xeb, 0xcb, 0xfe, 0x10, 0xe0, 0xce, 0xfe, 0x09, 0xe7, 0xe9, 0xf0, 0x0b,
  0xe3, 0xd4, 0x0b, 0x0b, 0xf5, 0xd1, 0x09, 0x0d, 0x03, 0xeb, 0x06, 0x0d,
  0x02, 0xf6, 0xf9, 0x14, 0xf5, 0x00, 0xde, 0xf7, 0xd1, 0xf7, 0xfe, 0x02,
  0x02, 0xe6, 0x0c, 0x01, 0x0a, 0xe8, 0x13, 0xfa, 0x00, 0xd8, 0x07, 0x08,
  0xec, 0xb9, 0x0a, 0x07, 0xfd, 0xfe, 0x10, 0x08, 0xfa, 0x01, 0xf4, 0xfa,
  0xe9, 0xe1, 0xe7, 0xf9, 0xf2, 0xfe, 0x02, 0x02, 0xed, 0xec, 0x06, 0x01,
  0x03, 0xa2, 0x09, 0x10, 0x0b, 0xc8, 0x0d, 0x15, 0x11, 0xe4, 0xeb, 0x0f,
  0x0a, 0xf7, 0xea, 0xed, 0x0c, 0xed, 0x00, 0xf3, 0x13, 0xf1, 0xfe, 0x0d,
  0x12, 0xf2, 0x14, 0x06, 0x09, 0xb5, 0x08, 0x08, 0x06, 0xbf, 0x03, 0x05,
  0x02, 0xee, 0x07, 0x0b, 0xfd, 0xfe, 0xf1, 0xf7, 0x03, 0x06, 0xfb, 0xe3,
  0xfb, 0x13, 0x08, 0xef, 0xfe, 0xfe, 0x00, 0x0d, 0xfd, 0x81, 0x0a, 0x09,
  0xfe, 0xbb, 0x01, 0x08, 0x04, 0xd5, 0xe3, 0x01, 0x0a, 0xe3, 0xd7, 0xfb,
  0x02, 0xf8, 0xe6, 0xfb, 0x1a, 0x01, 0x00, 0xf9, 0x05, 0xdc, 0x0f, 0x02,
  0xfe, 0xbd, 0x0b, 0x05, 0x03, 0xd8, 0x0d, 0x03, 0xfe, 0xf9, 0xf2, 0x0c,
  0xff, 0x04, 0x0a, 0x06, 0x00, 0x05, 0x02, 0xb7, 0x02, 0x05, 0xfe, 0x05,
  0x0c, 0xd5, 0x04, 0x00, 0x05, 0xaa, 0x03, 0xeb, 0x03, 0xe8, 0xfa, 0xfa,
  0xfb, 0xdd, 0xfd, 0xe8, 0x05, 0xe9, 0x0b, 0x02, 0x0a, 0xef, 0x0b, 0x0c,
  0x11, 0xe2, 0xfe, 0x07, 0xfe, 0xe0, 0x17, 0xfc, 0x01, 0xde, 0x10, 0x00,
  0x00, 0xe7, 0xf4, 0x02, 0x05, 0xec, 0xdd, 0x0f, 0xfb, 0xfa, 0x02, 0x09,
  0xfe, 0xf6, 0xff, 0xc7, 0x06, 0xf3, 0xfd, 0xd9, 0xfd, 0xec, 0xfd, 0xdb,
  0xf8, 0xf6, 0x03, 0xc4, 0xea, 0x02, 0x05, 0xcd, 0xeb, 0x00, 0x09, 0xe8,
  0xe7, 0x0e, 0x06, 0x03, 0xf5, 0xf0, 0x08, 0xf2, 0xed, 0xf0, 0x18, 0x06,
  0x03, 0xf2, 0x13, 0x08, 0x04, 0xf4, 0xf9, 0x06, 0x07, 0xea, 0xe4, 0x06,
  0x02, 0xfc, 0xbc, 0x07, 0x0a, 0x06, 0xd7, 0x07, 0x0c, 0x1d, 0xef, 0xd7,
  0x0c, 0x2f, 0xf8, 0xc3, 0x0f, 0x21, 0xe5, 0xb3, 0xee, 0x18, 0xfc, 0xb9,
  0xe6, 0x13, 0xf5, 0xc4, 0x0b, 0x10, 0xfa, 0xe5, 0xef, 0x05, 0x00, 0xff,
  0x0e, 0xf8, 0x02, 0xeb, 0x14, 0xf9, 0xfb, 0xfa, 0xed, 0x00, 0xf3, 0x19,
  0xe7, 0xf6, 0xce, 0x0f, 0xe9, 0xf7, 0xcb, 0x01, 0xf9, 0x07, 0xb1, 0x03,
  0xf2, 0x17, 0x8f, 0x01, 0xf4, 0x3c, 0xa8, 0xe6, 0xf7, 0x44, 0xce, 0xc7,
  0xe9, 0x1d, 0xca, 0xa7, 0x01, 0x0b, 0xf5, 0xd1, 0xef, 0x04, 0xf5, 0xdd,
  0x1a, 0x0d, 0xfc, 0xeb, 0xfd, 0xfa, 0x03, 0xf6, 0xff, 0x07, 0xf9, 0xf0,
  0x11, 0x02, 0xf4, 0xfd, 0x05, 0x05, 0xe1, 0xfb, 0xf4, 0x08, 0xc7, 0xe6,
  0xef, 0x08, 0xd8, 0xec, 0xe5, 0x0e, 0xcd, 0xef, 0xd6, 0x0c, 0xc2, 0xe6,
  0xfa, 0x08, 0xe1, 0xe1, 0xf0, 0x0e, 0xd7, 0xe0, 0xff, 0xff, 0xda, 0xd8,
  0x00, 0xfe, 0xf2, 0xe3, 0x08, 0x06, 0xfa, 0xea, 0x02, 0xfb, 0x05, 0xfe,
  0x0a, 0xff, 0x03, 0xfb, 0x04, 0x01, 0x07, 0xfd, 0x04, 0x00, 0x02, 0x07,
  0xed, 0xe3, 0x02, 0xfd, 0xdb, 0xd7, 0xf8, 0xf9, 0xc4, 0xe2, 0xf6, 0x03,
  0xdf, 0xf8, 0xf5, 0xf8, 0xe6, 0xf4, 0xfe, 0x09, 0xd9, 0xf6, 0x26, 0x02,
  0xdc, 0x04, 0x01, 0xed, 0xf9, 0x05, 0x12, 0xff, 0xe2, 0xfb, 0xff, 0xe8,
  0xd4, 0xe7, 0xe4, 0xe7, 0xe2, 0xd3, 0xd8, 0x07, 0x11, 0xeb, 0xee, 0x09,
  0x02, 0xfc, 0xfc, 0xfb, 0xfc, 0x0f, 0x04, 0x04, 0x0e, 0x00, 0xe6, 0x11,
  0xfd, 0xfb, 0xda, 0x0f, 0xd9, 0xfd, 0xf8, 0x08, 0xf0, 0x08, 0xfb, 0x05,
  0xee, 0xfd, 0x17, 0x08, 0xf2, 0x00, 0x08, 0x05, 0xe8, 0xff, 0x14, 0xf8,
  0xed, 0x00, 0x0e, 0x11, 0xf2, 0x02, 0x0f, 0xf9, 0xf6, 0x00, 0x0b, 0x0b,
  0xef, 0xfb, 0xff, 0xf9, 0xf6, 0xf1, 0x08, 0x01, 0xff, 0xfb, 0xfd, 0x0a,
  0x1a, 0x02, 0xf6, 0xf9, 0xfa, 0x02, 0xec, 0x15, 0xf1, 0x06, 0xf7, 0x14,
  0x01, 0x05, 0xe5, 0xf9, 0xef, 0xff, 0xf8, 0x0d, 0xe6, 0xf7, 0x03, 0x04,
  0xf2, 0xf8, 0xfb, 0x10, 0xec, 0xfa, 0xfe, 0x0b, 0xf3, 0xfb, 0xfb, 0x2a,
  0xf4, 0xfc, 0x12, 0x25, 0xee, 0x0b, 0x0f, 0x14, 0xe7, 0x01, 0x00, 0xfc,
  0xdb, 0xf9, 0xdc, 0x0a, 0xf3, 0xf0, 0xe4, 0xf4, 0xd5, 0xf8, 0x05, 0xf9,
  0xe6, 0x0a, 0x05, 0x0f, 0xf5, 0x16, 0xc5, 0x24, 0xfa, 0xf6, 0xe5, 0x17,
  0xf9, 0xe4, 0x04, 0x0b, 0xfa, 0xe5, 0x03, 0x04, 0xf8, 0xec, 0x06, 0x07,
  0xf4, 0xf8, 0xfd, 0x12, 0x01, 0xf4, 0x07, 0x07, 0x03, 0xeb, 0x04, 0x02,
  0xf3, 0x07, 0x04, 0x10, 0xe5, 0xfb, 0xf5, 0xf7, 0xeb, 0xf7, 0xcc, 0x01,
  0xf9, 0xf7, 0x03, 0xf4, 0xc9, 0xec, 0x17, 0x0b, 0xfd, 0xff, 0xf1, 0x11,
  0x0a, 0x0a, 0xdf, 0x01, 0x05, 0x0a, 0x04, 0xff, 0x02, 0xee, 0xfa, 0x0f,
  0xf6, 0xfe, 0x04, 0x04, 0xf7, 0xfd, 0x02, 0x06, 0xf3, 0x08, 0x0e, 0x0b,
  0xfd, 0xf1, 0x0b, 0xf5, 0xf1, 0x01, 0x04, 0xee, 0x0c, 0x05, 0x17, 0xff,
  0xe6, 0xf9, 0xf9, 0xfa, 0xe9, 0xf5, 0xfb, 0xff, 0xec, 0xf4, 0x22, 0xf4,
  0xcf, 0xee, 0x12, 0x0e, 0xd8, 0x05, 0x07, 0x0d, 0xe2, 0x11, 0xde, 0xf1,
  0x0f, 0x15, 0x0a, 0xf3, 0xe9, 0x12, 0x04, 0xfd, 0xe1, 0x09, 0x07, 0x06,
  0xd1, 0x1f, 0x03, 0x0f, 0xf3, 0x2b, 0x0c, 0x04, 0xf0, 0xfd, 0xff, 0xfa,
  0xe7, 0x13, 0xf7, 0x06, 0xf7, 0x00, 0x10, 0xf6, 0xfa, 0x02, 0xe2, 0xee,
  0xfc, 0xf7, 0xfc, 0xfb, 0xf7, 0xff, 0x19, 0xfd, 0xe0, 0xf3, 0x28, 0xe2,
  0xea, 0x02, 0x04, 0xfb, 0x16, 0xf2, 0xff, 0xf7, 0xf4, 0x0c, 0x0f, 0xf0,
  0xe8, 0x0f, 0x0b, 0xf7, 0xce, 0xf6, 0x07, 0x02, 0xe9, 0xcf, 0x0a, 0x08,
  0xeb, 0x18, 0x03, 0x0a, 0xdf, 0xf4, 0xf6, 0x0a, 0xc8, 0x0b, 0xf4, 0x17,
  0x0b, 0xf8, 0xce, 0xec, 0x07, 0xfc, 0x02, 0xea, 0xfb, 0xf4, 0xf0, 0x01,
  0xf0, 0xf4, 0xf7, 0x02, 0xdd, 0xf9, 0xfc, 0xe2, 0xe9, 0x02, 0xd0, 0xf4,
  0x02, 0x04, 0xe9, 0xda, 0x02, 0x0f, 0x18, 0xdd, 0xe2, 0xf3, 0x0e, 0xef,
  0xd5, 0xd8, 0x04, 0x07, 0xec, 0xe4, 0x0b, 0x08, 0xe7, 0xf9, 0x03, 0x05,
  0xe2, 0xe9, 0xef, 0x0c, 0xfd, 0xfa, 0xf8, 0x05, 0x01, 0x0c, 0xea, 0xec,
  0xf5, 0xf6, 0xfc, 0x00, 0x03, 0xfd, 0xf9, 0xff, 0xf9, 0xf2, 0xeb, 0xf9,
  0xdf, 0xef, 0xd6, 0xe6, 0xe5, 0x08, 0xd3, 0xca, 0x09, 0x11, 0xed, 0xeb,
  0xf5, 0x09, 0x0c, 0xd4, 0xdd, 0x0b, 0x03, 0xe7, 0xeb, 0x30, 0x06, 0x07,
  0xe5, 0xfc, 0xfe, 0x0f, 0xf4, 0xdb, 0xe2, 0x09, 0x07, 0xfd, 0x00, 0x11,
  0x00, 0x03, 0xfd, 0xe1, 0x07, 0x0d, 0xe8, 0x05, 0x01, 0x00, 0x00, 0x04,
  0xeb, 0xfc, 0x12, 0xf9, 0xe5, 0xe4, 0xdd, 0x0b, 0xee, 0xf4, 0xc4, 0xd3,
  0x18, 0x08, 0xf1, 0xac, 0x12, 0x0c, 0x17, 0xe9, 0x00, 0x15, 0x09, 0xdb,
  0xf4, 0x28, 0x03, 0xf6, 0xf5, 0x22, 0xf9, 0x03, 0xfe, 0x05, 0xef, 0x13,
  0x10, 0xe1, 0xe4, 0x0d, 0x0e, 0xff, 0xf1, 0x0d, 0x14, 0x0f, 0xf4, 0xfb,
  0x05, 0x08, 0xfb, 0x00, 0x0c, 0x05, 0x03, 0xff, 0x0d, 0x00, 0xe5, 0x0a,
  0xf9, 0x09, 0xd1, 0xfa, 0xfb, 0x03, 0xf1, 0xd3, 0x0b, 0xf9, 0x06, 0xcf,
  0x05, 0x17, 0x09, 0xe0, 0xff, 0x22, 0x0e, 0xee, 0xfa, 0x18, 0x0a, 0xff,
  0xf6, 0xf7, 0x01, 0xfd, 0xff, 0xe2, 0xf6, 0x07, 0x06, 0x0a, 0xe4, 0x0f,
  0x10, 0x11, 0xf7, 0x0b, 0x0e, 0xff, 0xd6, 0xf2, 0x08, 0xf5, 0xde, 0xfd,
  0x03, 0xf7, 0xe6, 0x05, 0x23, 0xe8, 0x16, 0x03, 0xe6, 0xfe, 0xdb, 0x00,
  0xed, 0xd8, 0x12, 0xe3, 0xee, 0x0d, 0x10, 0xea, 0xf4, 0xff, 0x17, 0xeb,
  0xfc, 0x0b, 0x0a, 0xfa, 0xf3, 0x04, 0x0d, 0xf6, 0xf7, 0x21, 0xfa, 0xfd,
  0xf3, 0x57, 0x01, 0x09, 0xed, 0x37, 0xec, 0xf5, 0xfe, 0xf3, 0xe8, 0x10,
  0xff, 0xfb, 0xf0, 0xeb, 0x02, 0xe1, 0x06, 0x16, 0xdf, 0xea, 0x08, 0xf6,
  0x14, 0xf8, 0x0c, 0x02, 0x19, 0x03, 0xf6, 0xf9, 0xf6, 0xfb, 0x09, 0xfb,
  0xe3, 0x04, 0xf4, 0xfa, 0xf1, 0xff, 0x11, 0x07, 0xf9, 0x10, 0x17, 0x0b,
  0x10, 0x12, 0xf2, 0x18, 0xfd, 0x26, 0x09, 0x11, 0xec, 0x15, 0x06, 0x0d,
  0xf6, 0x08, 0xfe, 0x02, 0x0c, 0xf5, 0xf2, 0x00, 0x1d, 0xfd, 0xdf, 0x0c,
  0x1e, 0x00, 0xed, 0xde, 0xde, 0xfa, 0xfe, 0xfc, 0x14, 0x00, 0x02, 0x0b,
  0x0e, 0xf5, 0x06, 0xed, 0x11, 0x03, 0xfc, 0xf6, 0xf7, 0x0f, 0xf3, 0xe8,
  0xf7, 0x0a, 0xf3, 0x12, 0x0c, 0xfc, 0xed, 0x1d, 0x07, 0x01, 0xe0, 0xe8,
  0x04, 0x08, 0xfe, 0x03, 0xf0, 0x05, 0xe6, 0xf1, 0x08, 0x08, 0x01, 0xe0,
  0xf4, 0x07, 0xf0, 0xef, 0x0a, 0x06, 0xff, 0xf0, 0x16, 0x04, 0xf8, 0xc8,
  0x19, 0x01, 0x00, 0xe5, 0x24, 0x05, 0x0b, 0x04, 0x03, 0xf8, 0x09, 0x02,
  0x06, 0xfa, 0xfc, 0xfe, 0xe8, 0xf8, 0xff, 0xf2, 0x06, 0x12, 0x0e, 0x0f,
  0x09, 0x1a, 0x09, 0x1d, 0xfb, 0x0a, 0x0a, 0x15, 0x1c, 0x0a, 0x1c, 0xfd,
  0x1d, 0x0d, 0xff, 0xf6, 0x14, 0xfd, 0xed, 0x0f, 0xf2, 0xf2, 0xe2, 0xe9,
  0x00, 0xf1, 0xe1, 0x06, 0x01, 0xe9, 0xfd, 0x05, 0xeb, 0xfe, 0x0b, 0x08,
  0xe9, 0x1b, 0xf2, 0x04, 0xfe, 0xf2, 0xfd, 0x04, 0xdf, 0xe2, 0x00, 0x04,
  0xf9, 0xfd, 0xfe, 0xe4, 0x15, 0x06, 0xf9, 0x16, 0x15, 0x0b, 0xf5, 0x0d,
  0x0c, 0x03, 0xf7, 0x0a, 0x0b, 0x06, 0xf6, 0xf8, 0xfe, 0x01, 0xe4, 0xfa,
  0xfd, 0xfe, 0xf9, 0xee, 0x00, 0xfd, 0xe6, 0xd4, 0x04, 0x01, 0xec, 0xde,
  0x00, 0xff, 0xf6, 0xeb, 0xf1, 0xf6, 0xfe, 0x10, 0xe9, 0xe8, 0xee, 0x0e,
  0xed, 0xef, 0x02, 0x1a, 0xfc, 0xfa, 0xfc, 0xe7, 0x1b, 0xfc, 0xe4, 0xe8,
  0x0e, 0x08, 0xf5, 0x01, 0x03, 0x06, 0xef, 0x07, 0x02, 0x06, 0x07, 0xfc,
  0x08, 0x06, 0x0c, 0xec, 0x01, 0x00, 0x07, 0xf8, 0xff, 0x03, 0xfe, 0xf7,
  0xfa, 0xff, 0xf9, 0xe0, 0xfb, 0xff, 0xe7, 0xc0, 0xf8, 0xf4, 0xe2, 0xbf,
  0xcc, 0xf9, 0xe0, 0x10, 0xe3, 0xf6, 0xf8, 0x0f, 0xf8, 0x06, 0xfd, 0xfd,
  0x08, 0x01, 0x01, 0xfe, 0x01, 0xfd, 0x11, 0xf5, 0x02, 0xff, 0x17, 0xdb,
  0x01, 0x09, 0x09, 0xf9, 0x0c, 0x09, 0xff, 0xf7, 0x06, 0x00, 0x04, 0xf2,
  0x02, 0x00, 0x02, 0x08, 0x03, 0xfc, 0xf6, 0x09, 0xfb, 0xfe, 0xdd, 0x00,
  0xf4, 0xfe, 0xe7, 0x15, 0xf7, 0xe5, 0xe7, 0xe2, 0xca, 0xff, 0xf9, 0x12,
  0xea, 0xfc, 0xec, 0x11, 0xf0, 0xd7, 0xec, 0x09, 0x0d, 0xfd, 0xea, 0xfb,
  0xf1, 0xfe, 0xf8, 0xd4, 0xf7, 0x10, 0x04, 0xdf, 0xff, 0x0d, 0x02, 0xf2,
  0xfe, 0x06, 0x00, 0xff, 0x02, 0x04, 0xf2, 0xfa, 0xff, 0x04, 0xf6, 0x04,
  0xff, 0xff, 0x02, 0x09, 0xf0, 0xff, 0x07, 0x0e, 0xea, 0xf5, 0x0f, 0x01,
  0xe1, 0xf6, 0x04, 0x10, 0xdf, 0x08, 0xf6, 0x10, 0xc0, 0xfd, 0x03, 0x07,
  0xdc, 0xe4, 0xfc, 0xee, 0xdd, 0xe9, 0xec, 0xec, 0xf5, 0x09, 0xde, 0xe0,
  0x07, 0x1f, 0xde, 0xed, 0xfe, 0x10, 0xec, 0xf3, 0xfc, 0x0f, 0xee, 0xff,
  0x01, 0x06, 0xf1, 0xfe, 0xf5, 0xff, 0xff, 0x04, 0xed, 0xf3, 0x09, 0x0c,
  0xe8, 0xf4, 0x0a, 0x0b, 0xf9, 0x02, 0x12, 0x0b, 0xfd, 0x06, 0x0b, 0x06,
  0xef, 0x0d, 0x23, 0x11, 0x11, 0x06, 0x2a, 0x08, 0xf6, 0x02, 0xda, 0xe9,
  0xe5, 0x13, 0xd7, 0xdc, 0xdf, 0x14, 0xcf, 0xf0, 0xf8, 0x1f, 0xdb, 0xeb,
  0xf9, 0x12, 0xee, 0xd9, 0x06, 0x11, 0xef, 0xf4, 0x01, 0x14, 0xfc, 0xef,
  0xfc, 0x18, 0x02, 0xfb, 0xf9, 0xf9, 0x0a, 0x12, 0xf8, 0xef, 0x0d, 0x0b,
  0xfd, 0xf4, 0x09, 0x0e, 0x0e, 0xf7, 0x0e, 0x0c, 0x15, 0xfb, 0x19, 0xed,
  0x1f, 0x05, 0x23, 0xfa, 0x13, 0x13, 0xdb, 0xe8, 0xff, 0xfc, 0xd2, 0xdb,
  0xfe, 0x00, 0xe5, 0xc7, 0xfe, 0x09, 0xf0, 0xe0, 0xf8, 0x0a, 0xfa, 0xda,
  0xf4, 0x0a, 0x04, 0xe3, 0xf9, 0x0f, 0x05, 0xf8, 0xfe, 0x0c, 0x05, 0xf4,
  0xfe, 0x07, 0x07, 0xf3, 0x08, 0x0e, 0x05, 0xfc, 0x0d, 0x06, 0x04, 0xfa,
  0x0d, 0xff, 0x0d, 0xd8, 0x29, 0x14, 0x2e, 0xe6, 0x34, 0x14, 0x1e, 0xf0,
  0x1c, 0x10, 0x0b, 0xee, 0x03, 0xfb, 0xfc, 0xcc, 0x05, 0x00, 0xff, 0xe1,
  0xfa, 0xfc, 0x07, 0xe0, 0xfb, 0x05, 0x08, 0xdf, 0xfd, 0x0d, 0x00, 0xe2,
  0xfc, 0x02, 0x04, 0xf2, 0x03, 0x06, 0x04, 0xee, 0x07, 0x03, 0x02, 0xe6,
  0x14, 0x0a, 0xfc, 0xec, 0x0d, 0x03, 0xfa, 0xf5, 0x14, 0x06, 0x01, 0xf4,
  0x17, 0x0b, 0x14, 0xd7, 0x10, 0x04, 0x2e, 0x01, 0x0e, 0x02, 0x1a, 0xef,
  0xfe, 0xed, 0x17, 0xda, 0x02, 0xf3, 0x08, 0xfd, 0xfe, 0xf7, 0x0a, 0xf9,
  0x02, 0xfb, 0xfd, 0x01, 0xfd, 0x00, 0xfc, 0x0b, 0x02, 0xf1, 0xfc, 0xfe,
  0x09, 0xe5, 0xff, 0xef, 0x0c, 0x10, 0xfc, 0xf7, 0x0d, 0x22, 0x03, 0xf3,
  0x10, 0x18, 0xfb, 0xfe, 0x04, 0x20, 0x07, 0x0e, 0x0b, 0x09, 0x21, 0x00,
  0x00, 0x02, 0x15, 0x02, 0x1a, 0xf3, 0x11, 0xf5, 0x10, 0xd1, 0x12, 0xdb,
  0x01, 0xd8, 0x13, 0xfc, 0xf9, 0xea, 0x09, 0x00, 0xfc, 0xde, 0xfb, 0x01,
  0xfc, 0xf7, 0xfb, 0xfb, 0x04, 0xe6, 0xf2, 0xf8, 0x0a, 0xfc, 0x01, 0xff,
  0x0c, 0x14, 0xfe, 0x08, 0x12, 0x21, 0xf8, 0x14, 0x18, 0x15, 0xee, 0x0c,
  0x10, 0x2a, 0xea, 0x29, 0x02, 0x05, 0x24, 0x07, 0x07, 0x03, 0x06, 0x0a,
  0x18, 0xe9, 0x23, 0x0f, 0xfa, 0xf3, 0xff, 0x09, 0xfb, 0xf1, 0x0e, 0xf5,
  0x09, 0xd6, 0x05, 0x01, 0x00, 0xdb, 0xf3, 0x02, 0x04, 0xf4, 0xf2, 0xfd,
  0x04, 0xf3, 0xe8, 0xf5, 0x07, 0x11, 0xee, 0x00, 0x08, 0x1e, 0xe2, 0x08,
  0x0d, 0x15, 0xd9, 0x0d, 0xf9, 0x12, 0xcc, 0x05, 0xf8, 0xf2, 0xe3, 0x12,
  0x02, 0x05, 0xec, 0xf2, 0xd9, 0x03, 0xf7, 0x17, 0xf6, 0xfc, 0x01, 0x0d,
  0xc3, 0xea, 0x00, 0x02, 0xd2, 0xf7, 0xfd, 0xf9, 0xf4, 0xfa, 0xfa, 0xff,
  0xf8, 0xf8, 0xd3, 0xfd, 0x09, 0x0f, 0xc9, 0x00, 0x06, 0x24, 0xe9, 0xfb,
  0xff, 0x2d, 0xdd, 0x07, 0x0c, 0x14, 0xc3, 0x01, 0x1b, 0xf3, 0xcc, 0x0d,
  0x0b, 0xed, 0xd0, 0xff, 0xe5, 0xf9, 0xea, 0x00, 0xe0, 0x0e, 0xfe, 0xf3,
  0xf5, 0x06, 0x02, 0x05, 0x00, 0xef, 0xfa, 0xf4, 0xfa, 0xef, 0xed, 0xfb,
  0xf5, 0x02, 0xd1, 0xbd, 0xea, 0x06, 0xbb, 0xf1, 0xe7, 0x05, 0xb5, 0xff,
  0xde, 0x06, 0xc0, 0xe4, 0xea, 0x0a, 0xd9, 0x02, 0xf4, 0x0c, 0xd5, 0x1a,
  0xe7, 0x0e, 0xac, 0xf0, 0xed, 0x0a, 0xc3, 0xf3, 0xf7, 0x08, 0xd5, 0xb7,
  0xeb, 0x09, 0x00, 0xf1, 0xf9, 0x02, 0x08, 0xed, 0x02, 0xfa, 0x03, 0x01,
  0xfc, 0xf7, 0x04, 0x04, 0xfa, 0x0a, 0xfc, 0x03, 0x19, 0x03, 0x01, 0x0d,
  0x0a, 0xfc, 0xf6, 0x0f, 0x03, 0x05, 0x19, 0xfa, 0xfb, 0x0b, 0xf3, 0xf2,
  0x04, 0x00, 0xe8, 0xf1, 0x08, 0x07, 0xee, 0x0b, 0x0b, 0x03, 0xfa, 0xf7,
  0x00, 0x02, 0x01, 0xfb, 0x0b, 0xfa, 0xed, 0xf3, 0xd4, 0xeb, 0xf9, 0xfb,
  0xcb, 0xdf, 0xf6, 0x05, 0xef, 0xed, 0xfa, 0x04, 0x02, 0x04, 0xff, 0x05,
  0x32, 0x0e, 0x02, 0xfd, 0x10, 0x01, 0x0c, 0x08, 0x07, 0x06, 0x13, 0x0e,
  0xff, 0x09, 0x02, 0x0e, 0x09, 0x07, 0x02, 0x08, 0x0b, 0x0b, 0x05, 0xf3,
  0x05, 0x07, 0xfb, 0x0c, 0xfe, 0xfe, 0xfd, 0xe9, 0xf7, 0xfb, 0xe3, 0xe7,
  0xfc, 0xfa, 0xf0, 0xb1, 0x09, 0xfa, 0xe0, 0xf8, 0xdc, 0xef, 0xf1, 0x0c,
  0xe9, 0xf3, 0x0e, 0x0e, 0x0b, 0x05, 0x04, 0xf1, 0x19, 0xf8, 0x0c, 0x21,
  0x0c, 0x08, 0x13, 0xf5, 0x02, 0x0a, 0x19, 0x02, 0x11, 0x07, 0xfb, 0xf9,
  0x06, 0x0d, 0x03, 0x05, 0x09, 0x04, 0xfd, 0xf7, 0x06, 0x05, 0x00, 0xf8,
  0x04, 0x02, 0xfd, 0xec, 0x03, 0x00, 0xf4, 0x01, 0xfc, 0xfc, 0xea, 0xdb,
  0xeb, 0xfb, 0xe7, 0xe8, 0xe7, 0xf4, 0xe4, 0x0a, 0xbf, 0xfe, 0xab, 0x05,
  0xf9, 0xe0, 0xfa, 0xfb, 0x0d, 0x04, 0xf3, 0x0b, 0x08, 0x04, 0x02, 0xf9,
  0x09, 0x10, 0x03, 0x12, 0x09, 0x09, 0xfe, 0xfc, 0x05, 0x07, 0xfa, 0xf8,
  0x08, 0x09, 0xf4, 0xff, 0x09, 0x02, 0xf2, 0xfe, 0x05, 0x02, 0xef, 0xff,
  0xfb, 0xfc, 0xf5, 0x02, 0xf8, 0x00, 0xe5, 0xfd, 0xf1, 0xf6, 0xde, 0x06,
  0xbd, 0x04, 0xec, 0x24, 0xf0, 0xf6, 0xb6, 0x10, 0xec, 0x0f, 0x12, 0xf3,
  0xff, 0xf6, 0x02, 0xf7, 0xfc, 0xfc, 0xf9, 0x04, 0x00, 0x11, 0xf8, 0xfe,
  0x02, 0x04, 0xfc, 0xec, 0x03, 0x0a, 0xf9, 0xec, 0xff, 0x0e, 0x01, 0x00,
  0x06, 0xfe, 0x02, 0xf9, 0xff, 0xf2, 0x00, 0xfa, 0xfe, 0xf7, 0x05, 0xfb,
  0xf1, 0xf5, 0x0d, 0xfe, 0xfb, 0xeb, 0x0a, 0xeb, 0xe8, 0x05, 0xba, 0x19,
  0xbf, 0xfe, 0xe1, 0x09, 0x22, 0x02, 0xeb, 0x01, 0xf9, 0x12, 0xf2, 0xed,
  0x01, 0x0d, 0xf6, 0xf7, 0xf0, 0x03, 0xf9, 0xe6, 0xee, 0x09, 0xf9, 0xd7,
  0xfc, 0x07, 0xf8, 0xde, 0xfd, 0x0a, 0x06, 0xf0, 0x09, 0xeb, 0x0d, 0xf8,
  0x15, 0xe4, 0x0b, 0xfb, 0x16, 0xed, 0x06, 0xf0, 0x0e, 0xf7, 0x01, 0xe7,
  0xf3, 0xf9, 0xfb, 0xb1, 0x09, 0xe4, 0xe5, 0xfe, 0xfe, 0xed, 0xf0, 0x02,
  0xea, 0xfe, 0xf9, 0x18, 0xe0, 0x10, 0xe7, 0xf0, 0xeb, 0x0d, 0xe1, 0xed,
  0xe6, 0x0a, 0xea, 0xdc, 0xf3, 0x0c, 0xee, 0xe0, 0xf4, 0x05, 0xf0, 0xe7,
  0xff, 0xff, 0x05, 0xf6, 0x08, 0xfb, 0x08, 0xfa, 0x0d, 0xfa, 0x0b, 0xf2,
  0x0c, 0xff, 0x03, 0xee, 0xfa, 0xfe, 0xec, 0xe2, 0xf3, 0x00, 0xa5, 0xba,
  0xf6, 0x00, 0xf4, 0xfc, 0xd6, 0xf8, 0xec, 0x02, 0x00, 0x0a, 0xcd, 0xf6,
  0xfd, 0x1d, 0xef, 0xe2, 0xe3, 0x07, 0xcd, 0xf8, 0xde, 0x0c, 0xd2, 0xe8,
  0xf7, 0x04, 0xe1, 0xec, 0xf5, 0xfc, 0xed, 0xf2, 0x03, 0xf5, 0xf8, 0x05,
  0x09, 0xef, 0xfe, 0x07, 0x10, 0xfa, 0xf4, 0xfa, 0x07, 0x04, 0xef, 0xfa,
  0x01, 0x05, 0xe3, 0xf2, 0xee, 0xfe, 0xc1, 0xdb, 0xf0, 0xf6, 0xd7, 0x02,
  0xdd, 0x02, 0xd0, 0x0d, 0xff, 0xfe, 0xe7, 0xfd, 0xfb, 0x13, 0x0e, 0x07,
  0xf5, 0x12, 0xdb, 0x02, 0xf1, 0x10, 0xdd, 0x00, 0xfa, 0x0f, 0xec, 0xf6,
  0xff, 0x05, 0xe8, 0xfd, 0x0a, 0xfd, 0xf2, 0x0c, 0x0d, 0x07, 0xfb, 0x08,
  0x0b, 0xef, 0x05, 0x02, 0x02, 0x07, 0x00, 0xfc, 0xf6, 0x02, 0xf8, 0xff,
  0xeb, 0x00, 0xff, 0xf9, 0xcd, 0xf4, 0xc4, 0x25, 0xec, 0xf2, 0xd7, 0x07,
  0xf5, 0xf5, 0x34, 0x07, 0x0a, 0x0d, 0x02, 0x10, 0xfe, 0x0d, 0xe7, 0x01,
  0xff, 0x0b, 0xdc, 0xfe, 0xf6, 0x09, 0xe2, 0xfa, 0x00, 0x09, 0xe9, 0x01,
  0x0b, 0x04, 0x00, 0x0e, 0x07, 0x09, 0xfc, 0x03, 0x02, 0x03, 0x0b, 0x00,
  0xf4, 0x0b, 0x07, 0xff, 0xfe, 0xde, 0x07, 0xf8, 0xf3, 0xef, 0x0d, 0xf7,
  0xf5, 0x09, 0xef, 0x06, 0x04, 0x07, 0xe9, 0xf5, 0xf6, 0x10, 0x1b, 0x0a,
  0x0a, 0x09, 0x22, 0x15, 0x09, 0x12, 0xf9, 0x08, 0x04, 0x08, 0xe7, 0x01,
  0x03, 0x08, 0xe6, 0xfe, 0x02, 0x07, 0xf4, 0xf9, 0xfc, 0x04, 0x02, 0xf6,
  0xff, 0x05, 0x04, 0xfc, 0x00, 0xfa, 0x04, 0xfa, 0xfa, 0xef, 0x06, 0xf0,
  0xf5, 0xe0, 0x09, 0xfb, 0xf1, 0xf9, 0xfe, 0xdc, 0x01, 0xf1, 0xe9, 0xed,
  0xed, 0xf1, 0x0a, 0x00, 0x04, 0xf7, 0xf4, 0x1f, 0x1b, 0x08, 0xd6, 0xfc,
  0xff, 0x13, 0xf4, 0x03, 0x02, 0x1c, 0xf4, 0x06, 0x04, 0x1f, 0xec, 0x02,
  0x02, 0x04, 0xfb, 0xf9, 0xfb, 0x18, 0x05, 0xf3, 0x03, 0x04, 0x0b, 0xf8,
  0x03, 0xca, 0x0c, 0xfb, 0xfe, 0xd2, 0x15, 0xfa, 0x11, 0xdb, 0x04, 0xf0,
  0xf3, 0x0f, 0x0e, 0xb2, 0xf2, 0xf8, 0x08, 0xf1, 0x0e, 0xfc, 0xff, 0x00,
  0xf2, 0x01, 0x05, 0x06, 0x19, 0x08, 0xf9, 0xfb, 0x1e, 0x06, 0xd2, 0xf5,
  0x24, 0x07, 0xe1, 0xfd, 0x11, 0xfd, 0xfe, 0xf9, 0x03, 0xf9, 0xf0, 0xf5,
  0x04, 0xed, 0x19, 0xe4, 0x07, 0xea, 0xfe, 0xd3, 0x13, 0xe3, 0x08, 0xe7,
  0x0b, 0xf6, 0x1e, 0xfb, 0x0b, 0xff, 0x1e, 0xe9, 0x01, 0xfd, 0xfc, 0xd4,
  0xfb, 0xfa, 0xf9, 0xf5, 0xf6, 0x00, 0x03, 0xfd, 0xfb, 0xf0, 0x06, 0x06,
  0xfc, 0xf7, 0x04, 0x0b, 0xf2, 0xf9, 0x01, 0x2c, 0x03, 0xfc, 0x11, 0x02,
  0x0c, 0xf6, 0x0e, 0xd6, 0x14, 0xff, 0xcf, 0xd1, 0x06, 0x01, 0xe5, 0xc4,
  0x06, 0x06, 0xff, 0xcd, 0x0a, 0xff, 0x21, 0xf3, 0x10, 0x03, 0x0d, 0xe5,
  0x15, 0xff, 0x16, 0xfd, 0x06, 0xfb, 0xf4, 0xe3, 0xfd, 0x00, 0x21, 0xf0,
  0xe8, 0x01, 0x0e, 0x05, 0x03, 0x01, 0x01, 0xfc, 0x05, 0x09, 0x02, 0xfe,
  0xf8, 0xf1, 0xe8, 0xec, 0x0b, 0xf3, 0xe3, 0xf6, 0xe7, 0xcf, 0xde, 0xf1,
  0xd0, 0xdc, 0xe5, 0xfb, 0xb6, 0x01, 0xe5, 0xfb, 0xf6, 0xe5, 0xe5, 0xf0,
  0xf1, 0xef, 0x0b, 0xf1, 0xda, 0xf3, 0xfa, 0xf7, 0x04, 0x08, 0xe8, 0x02,
  0x00, 0x02, 0xf6, 0xfe, 0xe3, 0x18, 0x00, 0xfe, 0x1b, 0xde, 0x00, 0x03,
  0xff, 0x02, 0x05, 0xf5, 0xf9, 0xf3, 0xfe, 0x00, 0xed, 0x03, 0xdc, 0xef,
  0x07, 0x02, 0xd1, 0xfb, 0xe2, 0xf2, 0xf9, 0xfe, 0xdb, 0xfc, 0x00, 0xfb,
  0xd8, 0xf4, 0x12, 0x14, 0xdf, 0xf8, 0x1b, 0x0a, 0xd6, 0xfd, 0x18, 0xfc,
  0xef, 0xfc, 0x06, 0x0e, 0xf3, 0x01, 0x0d, 0x10, 0x03, 0x04, 0x0d, 0x12,
  0x0a, 0x0d, 0x0a, 0xf8, 0xdf, 0x0e, 0x0f, 0xf1, 0xff, 0x0d, 0xf7, 0xf3,
  0x14, 0x18, 0xf6, 0xf1, 0x1f, 0x13, 0xd9, 0x05, 0xe5, 0x04, 0xff, 0x0c,
  0xcd, 0xfe, 0x1d, 0x07, 0xd2, 0x05, 0x05, 0x13, 0xd7, 0xfa, 0xfc, 0x17,
  0xd7, 0xf8, 0x0a, 0x0f, 0xcb, 0xf9, 0xfd, 0x0f, 0xce, 0x03, 0x03, 0x17,
  0xea, 0x01, 0x0f, 0x14, 0xf1, 0x09, 0x0a, 0x35, 0x07, 0x05, 0x0f, 0x0b,
  0x15, 0xfb, 0xfd, 0xff, 0x01, 0x15, 0xee, 0xe3, 0x2a, 0x22, 0xe8, 0x0e,
  0x10, 0x05, 0x04, 0x02, 0xea, 0xf7, 0x03, 0x00, 0xe7, 0xf6, 0x08, 0x1b,
  0xdf, 0xf9, 0x08, 0x12, 0xea, 0xf5, 0x07, 0x06, 0xe6, 0xf8, 0x01, 0x14,
  0xd2, 0xf5, 0x00, 0x16, 0xdb, 0xf9, 0x06, 0x19, 0xee, 0x00, 0x0c, 0x27,
  0x0b, 0x08, 0x18, 0x10, 0x13, 0x09, 0x09, 0xf7, 0x07, 0x04, 0xfd, 0xf2,
  0x05, 0xf3, 0xf9, 0xfe, 0x12, 0x02, 0xf9, 0x13, 0x07, 0xfb, 0xef, 0x07,
  0x04, 0xfe, 0xfe, 0x05, 0xf5, 0x01, 0x06, 0x10, 0xed, 0xf6, 0x05, 0x0e,
  0xe4, 0xea, 0x06, 0x12, 0xf6, 0xec, 0x08, 0x02, 0xe5, 0xe8, 0x05, 0x0a,
  0xe9, 0xf3, 0x0d, 0x07, 0xfb, 0xf8, 0x04, 0x0c, 0xfe, 0x05, 0x05, 0x05,
  0x1a, 0x04, 0xfe, 0xf3, 0x09, 0xfd, 0xf4, 0xf2, 0xfb, 0xf6, 0xff, 0xfa,
  0xfc, 0x0e, 0xf8, 0x07, 0xf3, 0x11, 0xfb, 0x04, 0x04, 0x08, 0x0b, 0x0e,
  0xf8, 0xfb, 0x05, 0x11, 0x0e, 0xe7, 0x0a, 0x06, 0x07, 0xf3, 0x02, 0x00,
  0x04, 0xfa, 0x01, 0xf4, 0xf9, 0xe5, 0x01, 0x04, 0x03, 0xe1, 0x09, 0x03,
  0x0f, 0xf5, 0xfe, 0x10, 0x01, 0x06, 0x03, 0xec, 0xfd, 0x03, 0x07, 0x09,
  0xef, 0xf9, 0xfe, 0xf7, 0xed, 0xfc, 0xeb, 0xee, 0x12, 0x04, 0x06, 0xf5,
  0x12, 0xf6, 0xfb, 0xf9, 0x1a, 0xee, 0x07, 0x06, 0x13, 0xdd, 0x0b, 0x02,
  0x10, 0xec, 0x07, 0xff, 0x11, 0xf1, 0xfa, 0xfe, 0x0d, 0xf5, 0xf2, 0xf5,
  0x03, 0xec, 0x00, 0x0a, 0x0f, 0xe3, 0x01, 0x1f, 0x12, 0x00, 0x05, 0x19,
  0x06, 0x10, 0x08, 0xf4, 0xf4, 0x04, 0xfe, 0xdc, 0x0a, 0x0b, 0x0d, 0x01,
  0x08, 0xf9, 0x00, 0xf9, 0xf9, 0xe5, 0x04, 0x05, 0x05, 0xe5, 0x0d, 0x08,
  0x0a, 0xde, 0x08, 0x02, 0x0d, 0xd1, 0x03, 0xfe, 0x0b, 0xe6, 0x06, 0x01,
  0x0d, 0xf8, 0xeb, 0xf7, 0x0c, 0x01, 0xfb, 0xee, 0xfb, 0xf0, 0x03, 0x0b,
  0x05, 0xe2, 0xfe, 0x04, 0x0c, 0xf7, 0xfe, 0x1b, 0x01, 0x07, 0xec, 0xea,
  0xff, 0x03, 0x10, 0xed, 0xfd, 0x10, 0x18, 0x05, 0x05, 0x0f, 0x23, 0xf3,
  0xfe, 0x16, 0x07, 0x0a, 0x04, 0xee, 0xfb, 0x06, 0x03, 0xcd, 0x0c, 0x01,
  0x03, 0xc5, 0x09, 0x01, 0x06, 0xde, 0xfd, 0x00, 0x07, 0xfd, 0x05, 0xfe,
  0x02, 0x0e, 0xfc, 0xfd, 0xff, 0xf0, 0x00, 0x03, 0x0b, 0xab, 0xfe, 0xfc,
  0x13, 0xee, 0xf4, 0x03, 0x03, 0x0c, 0x04, 0xff, 0x03, 0x13, 0x11, 0xff,
  0xdc, 0x1b, 0xe3, 0x01, 0x08, 0xf2, 0xf3, 0xe8, 0xfb, 0x0b, 0xec, 0x02,
  0xf6, 0xe9, 0xf9, 0xf3, 0xfa, 0xfd, 0xfa, 0x01, 0xfd, 0x01, 0x06, 0x00,
  0x06, 0x06, 0x0b, 0xfa, 0xfe, 0x00, 0x02, 0xf4, 0x03, 0x13, 0x02, 0x03,
  0x05, 0xf9, 0x09, 0x01, 0xf4, 0xcf, 0x03, 0x04, 0xfa, 0x0d, 0x07, 0x09,
  0xfc, 0xeb, 0xf3, 0xfa, 0x0a, 0xe6, 0xfa, 0xf2, 0x08, 0xfc, 0x05, 0xf0,
  0xf9, 0x00, 0xda, 0xea, 0x0d, 0x03, 0xd3, 0xdf, 0x00, 0xf8, 0xd5, 0xe7,
  0xfd, 0xfd, 0xf5, 0xf8, 0xe8, 0xf5, 0x0e, 0xfa, 0xd9, 0x0c, 0x04, 0xe4,
  0xdb, 0xf1, 0x07, 0xea, 0xe7, 0xf5, 0x03, 0xff, 0xe7, 0x02, 0xfc, 0x03,
  0x03, 0x14, 0xe9, 0x07, 0x00, 0xff, 0xf9, 0x0d, 0x08, 0x05, 0x07, 0xf5,
  0x01, 0x05, 0x09, 0xf5, 0xee, 0x06, 0xf3, 0xec, 0xed, 0x02, 0xfa, 0xf8,
  0xcf, 0xea, 0xc3, 0xed, 0xf3, 0xfc, 0xdf, 0xf0, 0xe9, 0x03, 0x02, 0xe7,
  0xe7, 0xf9, 0x05, 0xd9, 0xe8, 0xfa, 0x06, 0xec, 0xf3, 0xe6, 0x04, 0xff,
  0xda, 0xc5, 0x05, 0x0d, 0xed, 0xf4, 0xed, 0x0a, 0xf0, 0x0a, 0xf6, 0x0c,
  0xee, 0x0b, 0xf2, 0x0c, 0x06, 0x03, 0x1f, 0xfb, 0x02, 0x06, 0xfd, 0xf8,
  0x03, 0x03, 0x06, 0xf6, 0x10, 0x0c, 0xff, 0xea, 0xe9, 0x05, 0xe9, 0xf4,
  0xe4, 0x04, 0xf9, 0xcc, 0xda, 0x03, 0xf6, 0xe6, 0xeb, 0x00, 0xff, 0xfe,
  0xf2, 0x01, 0xf8, 0x09, 0xf7, 0xda, 0x02, 0x06, 0xf0, 0xb7, 0xfe, 0x0d,
  0xf0, 0xe8, 0x0c, 0x0a, 0xf0, 0xf6, 0xfe, 0x0b, 0xfe, 0xfe, 0xdf, 0x06,
  0x0d, 0xfa, 0xe2, 0xf5, 0x29, 0xf6, 0xff, 0xf3, 0x11, 0x05, 0xfc, 0xea,
  0x08, 0x09, 0x02, 0xf7, 0x0a, 0x0f, 0xf0, 0xfa, 0x0b, 0xff, 0xf1, 0xfa,
  0xf6, 0xff, 0xfe, 0xed, 0xfd, 0xf9, 0xf8, 0x0d, 0xf0, 0x02, 0xf4, 0x20,
  0x06, 0xf8, 0x00, 0x04, 0xfa, 0xee, 0xec, 0x00, 0xff, 0xf7, 0xfe, 0xf0,
  0xf4, 0xfe, 0xc8, 0xf1, 0x14, 0x06, 0xe7, 0xe6, 0xed, 0x08, 0xf5, 0xee,
  0x06, 0x00, 0xee, 0xdc, 0x26, 0xfd, 0xf2, 0xfa, 0x00, 0xf7, 0x02, 0x10,
  0xff, 0xf8, 0xfc, 0x00, 0xf6, 0xf2, 0xfe, 0xf4, 0xeb, 0xee, 0xf8, 0xf4,
  0x07, 0xee, 0xe1, 0xe1, 0xed, 0xe9, 0xf3, 0xfb, 0xef, 0xf1, 0xf1, 0xf9,
  0x06, 0x01, 0xe9, 0xfd, 0x01, 0xfa, 0x00, 0x0a, 0x03, 0x08, 0x05, 0x12,
  0xe5, 0xfe, 0x18, 0x0b, 0xeb, 0xfc, 0xf6, 0xf5, 0xf2, 0xf3, 0xec, 0x03,
  0xfc, 0xea, 0x11, 0x00, 0xfb, 0xfd, 0xff, 0x0d, 0xe6, 0xee, 0x00, 0xfd,
  0xda, 0xf2, 0xf9, 0xfa, 0xd4, 0xf3, 0xed, 0xed, 0xf7, 0xfa, 0xe0, 0xfc,
  0xee, 0xf6, 0xf6, 0xe9, 0xec, 0xfb, 0xec, 0xed, 0x00, 0xfe, 0xf1, 0x05,
  0x10, 0x01, 0x02, 0x09, 0x09, 0x05, 0x18, 0x29, 0xf5, 0x04, 0x0d, 0xf4,
  0xfc, 0x00, 0x08, 0xe1, 0x07, 0xfe, 0x15, 0xf1, 0x17, 0xfb, 0x10, 0xf1,
  0xec, 0xf3, 0x04, 0x01, 0xcd, 0xee, 0xef, 0xef, 0xd8, 0xfc, 0xeb, 0x06,
  0xee, 0x05, 0xeb, 0xfa, 0xf8, 0x01, 0xf7, 0xfc, 0xfc, 0xf9, 0xec, 0xfc,
  0xfc, 0xfd, 0xf1, 0x06, 0x06, 0xfe, 0xfd, 0x02, 0x0f, 0x02, 0x03, 0x02,
  0x10, 0x01, 0x11, 0xed, 0x1a, 0x09, 0x10, 0x05, 0x02, 0x0a, 0x21, 0xfa,
  0x12, 0x07, 0x19, 0xda, 0x1a, 0x02, 0x29, 0xeb, 0xd4, 0xe5, 0x0c, 0x0a,
  0xb3, 0xf8, 0xf2, 0xef, 0xed, 0xfb, 0xee, 0x01, 0xe8, 0xf8, 0xee, 0x07,
  0xf9, 0x04, 0xfc, 0x04, 0x01, 0xf8, 0xf5, 0xfe, 0xfc, 0x00, 0xf6, 0x0d,
  0x02, 0xfd, 0xf5, 0x0c, 0x0f, 0x01, 0x06, 0x02, 0x0e, 0x04, 0x0c, 0xb7,
  0x0e, 0x05, 0x19, 0xc9, 0x0e, 0x0a, 0x0c, 0xf0, 0x23, 0x03, 0x16, 0xec,
  0x1b, 0x02, 0x34, 0xe5, 0xd7, 0xd7, 0xf1, 0xf1, 0x03, 0x19, 0x0e, 0xf7,
  0x0e, 0xfd, 0x11, 0x0b, 0xe9, 0xef, 0xf6, 0x06, 0xfa, 0xf9, 0x00, 0x10,
  0xfe, 0xf4, 0xfc, 0x02, 0x04, 0xf7, 0xf4, 0x02, 0x05, 0x0a, 0xed, 0xed,
  0x06, 0x0c, 0xd8, 0xe8, 0x04, 0x0c, 0xd5, 0xc2, 0x09, 0x09, 0xe1, 0xc7,
  0x09, 0x0d, 0xf8, 0xbf, 0x26, 0x00, 0x1a, 0xe6, 0x33, 0x14, 0x04, 0x01,
  0xdd, 0x14, 0x08, 0xe3, 0x09, 0xee, 0xfe, 0x03, 0x00, 0xdd, 0x04, 0x0a,
  0xf6, 0xf1, 0xfe, 0x01, 0xf5, 0xf8, 0x03, 0x0a, 0xfb, 0xf4, 0xfe, 0x03,
  0x00, 0x10, 0x01, 0x0a, 0x06, 0x14, 0xee, 0xf2, 0x04, 0x17, 0xb8, 0xe2,
  0xfd, 0x0e, 0xad, 0xea, 0xf9, 0x0d, 0xc1, 0xe5, 0xf5, 0x10, 0xb1, 0xcd,
  0xfd, 0x02, 0xe5, 0xea, 0x23, 0xf5, 0x00, 0x09, 0xfc, 0x02, 0xe2, 0x06,
  0xe8, 0xe5, 0xf7, 0x13, 0xfa, 0xfe, 0xf8, 0x0c, 0x09, 0xfd, 0xfe, 0x0d,
  0x00, 0xf3, 0x04, 0x05, 0x00, 0xf6, 0xff, 0x08, 0x05, 0x05, 0xf7, 0x04,
  0x05, 0x1d, 0xdd, 0xfc, 0x04, 0x1b, 0xc2, 0xfa, 0xfa, 0x10, 0xb4, 0xfb,
  0xf4, 0x09, 0xb3, 0xdf, 0xf7, 0x0a, 0xa0, 0xdc, 0xe3, 0x07, 0xfc, 0xff,
  0xf6, 0x12, 0xeb, 0x11, 0xf9, 0xec, 0xf3, 0x19, 0x0b, 0x17, 0xdb, 0x0a,
  0x02, 0x11, 0xed, 0x0e, 0x00, 0x09, 0xec, 0x08, 0xfb, 0x10, 0xf9, 0x0b,
  0x02, 0x04, 0xfc, 0x07, 0x03, 0xfc, 0xf5, 0x06, 0x07, 0x12, 0xe7, 0x09,
  0xf7, 0x0b, 0xeb, 0xf6, 0xf3, 0x0a, 0xe4, 0xfe, 0xf6, 0x01, 0xdd, 0xef,
  0xf0, 0x07, 0xef, 0xff, 0xc5, 0x00, 0xdb, 0xf2, 0xc6, 0xec, 0xec, 0x1f,
  0xef, 0x0e, 0xd7, 0x14, 0x09, 0x0a, 0xb1, 0x0e, 0xff, 0x1b, 0xee, 0xfe,
  0xf6, 0x1c, 0xfd, 0x03, 0x05, 0x15, 0xf4, 0x0c, 0x02, 0x05, 0xf0, 0x0a,
  0x00, 0x02, 0xf2, 0x07, 0xfe, 0xfd, 0xf7, 0x0a, 0x00, 0x0c, 0xfc, 0xfe,
  0xf7, 0x14, 0xfa, 0x00, 0xf0, 0x0f, 0xf6, 0x00, 0x04, 0x07, 0x03, 0x08,
  0xd8, 0xf7, 0xfa, 0xe9, 0xf3, 0xf1, 0xfd, 0x07, 0x0f, 0x0c, 0xc4, 0x0a,
  0x04, 0x03, 0xd2, 0x0e, 0x01, 0x0b, 0xe9, 0x02, 0x02, 0x18, 0xf3, 0x01,
  0x04, 0x13, 0xf5, 0x01, 0xfd, 0x0b, 0xf7, 0x05, 0x01, 0x04, 0xfa, 0x02,
  0xfe, 0x0b, 0xfc, 0x09, 0xf4, 0x02, 0x06, 0x05, 0xf2, 0x13, 0x02, 0xff,
  0xed, 0x0c, 0x02, 0x03, 0x09, 0xfa, 0x04, 0xfa, 0xf1, 0x00, 0xf6, 0xf9,
  0xdf, 0xf7, 0x11, 0xfb, 0xfa, 0xea, 0xd6, 0x00, 0xf3, 0x06, 0xf8, 0x11,
  0xfa, 0x18, 0xf4, 0x05, 0x03, 0x14, 0xe7, 0x03, 0x02, 0x10, 0x00, 0x01,
  0x00, 0x0d, 0x04, 0xfc, 0xfd, 0x0b, 0x00, 0xf6, 0x00, 0x02, 0x08, 0xf9,
  0x01, 0x0b, 0x02, 0xff, 0xfc, 0x03, 0x05, 0xf4, 0xf8, 0xfa, 0x03, 0xe8,
  0xf3, 0xec, 0x03, 0xf9, 0x0a, 0xf8, 0x00, 0x05, 0xff, 0xf8, 0xf6, 0xf4,
  0x0a, 0x14, 0xe7, 0xf0, 0x05, 0x0b, 0xf2, 0xfe, 0xed, 0x11, 0xed, 0xfb,
  0x00, 0x16, 0xdd, 0x00, 0x00, 0x1e, 0xf5, 0x06, 0xff, 0x1c, 0x04, 0xfc,
  0xff, 0xff, 0xfb, 0xf0, 0x02, 0xf0, 0x03, 0xed, 0x03, 0xfe, 0x05, 0xf3,
  0x00, 0x0e, 0x0b, 0xe6, 0x0e, 0x06, 0x13, 0xf2, 0x01, 0xf3, 0x0a, 0xff,
  0x0a, 0xf7, 0x07, 0x05, 0x0a, 0xf4, 0x07, 0xfd, 0x00, 0xf9, 0xf8, 0x09,
  0xd5, 0xfb, 0xf8, 0x0d, 0xfb, 0x03, 0xd7, 0xef, 0x02, 0xf1, 0xbe, 0xf3,
  0x0d, 0x01, 0xcd, 0x03, 0x06, 0x10, 0xf9, 0xf6, 0x0c, 0x11, 0x01, 0xf1,
  0x0e, 0xff, 0x08, 0xf4, 0xfb, 0xfc, 0x0e, 0xe3, 0x08, 0xf1, 0x01, 0xd8,
  0x05, 0xfe, 0x0f, 0xe0, 0xff, 0xf4, 0x23, 0xfa, 0x04, 0x01, 0x05, 0x18,
  0x04, 0xf8, 0x00, 0x03, 0xfd, 0xeb, 0xfe, 0xfe, 0xf8, 0xf1, 0xfc, 0xfc,
  0xec, 0x02, 0xe6, 0xee, 0xfa, 0xfd, 0xc9, 0x11, 0xea, 0x05, 0xe7, 0xf1,
  0xff, 0x01, 0xd3, 0xf2, 0x04, 0xfc, 0xed, 0x02, 0xfd, 0xf8, 0xe9, 0xd5,
  0x10, 0xee, 0x0a, 0xf2, 0x09, 0xf1, 0x0c, 0xe5, 0x11, 0xf2, 0x14, 0xe3,
  0x02, 0x00, 0x14, 0x02, 0x07, 0xfc, 0x11, 0x1e, 0xff, 0x00, 0x10, 0x01,
  0x02, 0xf7, 0xef, 0x02, 0x01, 0xfb, 0xfd, 0xfe, 0x08, 0x21, 0x07, 0x08,
  0x00, 0x0f, 0x20, 0x14, 0xf2, 0x12, 0x30, 0x0e, 0x09, 0x06, 0x3c, 0x02,
  0xef, 0x05, 0x28, 0x0d, 0xef, 0x00, 0x21, 0x0c, 0xe3, 0x04, 0x20, 0x10,
  0xff, 0x0c, 0x09, 0x37, 0x07, 0x1a, 0x1f, 0x22, 0x0e, 0x20, 0x2b, 0x04,
  0x12, 0x0a, 0x21, 0xf5, 0xf9, 0x1c, 0xf8, 0xfa, 0xfe, 0x05, 0x02, 0xfa,
  0x09, 0x16, 0x03, 0x06, 0x0b, 0xfe, 0x25, 0x20, 0xe5, 0x11, 0x40, 0x0a,
  0xe8, 0xfc, 0x1e, 0x1d, 0xe8, 0xfd, 0x13, 0x0b, 0xe7, 0x00, 0x11, 0x01,
  0xf2, 0xf6, 0x06, 0x01, 0xfa, 0xfc, 0x01, 0x11, 0x01, 0x01, 0xfc, 0x19,
  0x09, 0x08, 0x04, 0x16, 0x09, 0x0e, 0x09, 0x02, 0x13, 0x0c, 0xfb, 0xfa,
  0x06, 0x08, 0xfe, 0xea, 0x01, 0x04, 0x14, 0x03, 0x16, 0x08, 0x20, 0x0f,
  0xf8, 0xf2, 0x32, 0x12, 0xe1, 0xf9, 0x26, 0x02, 0xea, 0xec, 0x18, 0x0c,
  0xe7, 0xe4, 0x0d, 0xfb, 0xf0, 0xee, 0x00, 0xf5, 0xf5, 0xf8, 0x01, 0x11,
  0x03, 0x00, 0x07, 0x01, 0x08, 0x03, 0xf9, 0x08, 0x11, 0xfc, 0x00, 0xf9,
  0x10, 0x04, 0x0a, 0xde, 0x22, 0x05, 0x09, 0xe8, 0x0b, 0x0f, 0x03, 0xfb,
  0xf7, 0x01, 0x1d, 0xf2, 0xf6, 0xf8, 0x2f, 0x10, 0xd3, 0xf4, 0x1c, 0x16,
  0xf3, 0xf0, 0x0a, 0xf7, 0xe4, 0xe7, 0x16, 0x0a, 0xd9, 0xea, 0x0c, 0x00,
  0xeb, 0xd8, 0x0a, 0xfe, 0xf1, 0xe2, 0x06, 0x05, 0xf8, 0xf8, 0x05, 0xdb,
  0x02, 0x05, 0x0d, 0xff, 0x0e, 0x07, 0x0d, 0xfe, 0x17, 0xfc, 0x06, 0xe6,
  0x0b, 0xf8, 0xe6, 0xef, 0x0b, 0xe7, 0xdc, 0xee, 0xff, 0xf6, 0x1e, 0xec,
  0xe2, 0xf3, 0x1a, 0x19, 0xc1, 0xf7, 0x09, 0x03, 0xd2, 0xf1, 0x10, 0xfc,
  0xe6, 0xf0, 0x08, 0x06, 0xe3, 0xe6, 0x03, 0xf8, 0xef, 0xe5, 0x00, 0xef,
  0xf4, 0xf8, 0x02, 0xfe, 0xfd, 0x0a, 0xfd, 0xd2, 0x02, 0x0c, 0xf6, 0xfa,
  0x02, 0x07, 0xed, 0xfa, 0x0b, 0x0a, 0xfd, 0xe3, 0xf4, 0x01, 0x02, 0xf5,
  0xf7, 0x03, 0xfc, 0x00, 0xf6, 0xe9, 0x1f, 0xeb, 0xfc, 0xe9, 0x09, 0x0e,
  0xe9, 0xf9, 0x12, 0xfc, 0xe1, 0xef, 0x16, 0x0a, 0xdd, 0xfe, 0x06, 0xff,
  0xe2, 0xf3, 0x05, 0xf9, 0xfa, 0xe7, 0x03, 0x04, 0x08, 0xfb, 0xfd, 0xf5,
  0x06, 0x1a, 0xef, 0xcc, 0x00, 0x14, 0xe4, 0xd9, 0xfe, 0x1a, 0xe7, 0xe8,
  0x01, 0x12, 0xe4, 0xe4, 0xfa, 0x03, 0xff, 0xf2, 0xde, 0x0e, 0x0b, 0x00,
  0xf0, 0xf6, 0x06, 0xec, 0xff, 0xfd, 0x0f, 0x08, 0x0c, 0xe8, 0x1a, 0x06,
  0xe3, 0xf0, 0x0c, 0x00, 0xd9, 0xf7, 0x00, 0x02, 0xe7, 0xcf, 0x00, 0xfc,
  0x02, 0xed, 0xfc, 0x01, 0x02, 0x1a, 0xfa, 0xec, 0x07, 0x17, 0xf7, 0xe6,
  0xfc, 0x0a, 0xf0, 0xe0, 0xfd, 0x0d, 0xed, 0xf6, 0x04, 0x0b, 0xff, 0xf8,
  0x09, 0x01, 0xe5, 0xff, 0xe8, 0xf9, 0xfe, 0xf7, 0xf2, 0xfd, 0xed, 0xed,
  0xda, 0x01, 0x16, 0xf5, 0x1a, 0xf6, 0x10, 0x16, 0xee, 0xe3, 0x11, 0x0b,
  0xe6, 0xc9, 0x05, 0x09, 0xf7, 0xfc, 0x06, 0x05, 0x0a, 0x15, 0xf8, 0x0a,
  0x06, 0x0e, 0xed, 0xf7, 0x06, 0x09, 0xf8, 0xf5, 0xfe, 0x09, 0xfe, 0xf9,
  0xfe, 0x01, 0xfe, 0xfb, 0x19, 0xf8, 0x09, 0xfc, 0x05, 0xff, 0xf0, 0xf6,
  0x0b, 0xfb, 0xe4, 0xfe, 0xf4, 0xf3, 0xce, 0xed, 0xf0, 0xf6, 0x23, 0xe9,
  0xff, 0xde, 0x08, 0x12, 0xf8, 0xd7, 0x07, 0x02, 0xfd, 0xc3, 0x11, 0x0c,
  0xfc, 0xf3, 0xfe, 0x0c, 0xff, 0xd8, 0xed, 0x0d, 0x08, 0xec, 0xfd, 0xf4,
  0x09, 0x12, 0x01, 0x04, 0x0b, 0xfa, 0x01, 0x01, 0xf8, 0xec, 0xfe, 0xf7,
  0x01, 0xe6, 0xfa, 0x01, 0x14, 0xe9, 0xe7, 0x06, 0x0a, 0xfc, 0xe7, 0xf8,
  0xf0, 0xf8, 0xf1, 0xf1, 0x08, 0xd5, 0x04, 0xe9, 0x02, 0xdc, 0x0c, 0x0b,
  0x04, 0xc0, 0x0c, 0x09, 0x04, 0xd1, 0x0a, 0x08, 0x00, 0xd3, 0xf4, 0x0d,
  0x02, 0xda, 0xfb, 0x0b, 0x04, 0xff, 0x01, 0xf6, 0x08, 0x05, 0xfb, 0xff,
  0x00, 0xf9, 0xfc, 0x04, 0xfd, 0xe5, 0xf4, 0xf9, 0xfd, 0xf6, 0xfd, 0xee,
  0xee, 0x08, 0xf8, 0x02, 0x00, 0xfd, 0xed, 0xfd, 0xe8, 0x04, 0xf3, 0xf4,
  0xe6, 0xec, 0xec, 0x01, 0xe5, 0xf7, 0xf6, 0x04, 0xfa, 0xd7, 0x05, 0x03,
  0xfb, 0xb3, 0x0f, 0x05, 0x03, 0xc4, 0xe8, 0x0a, 0x02, 0xf2, 0xf3, 0x06,
  0x04, 0x12, 0xf9, 0xf5, 0x03, 0x09, 0xf7, 0xde, 0x07, 0xb2, 0xf8, 0xcc,
  0x0d, 0xdf, 0x00, 0xf1, 0xf6, 0x05, 0xf1, 0xd9, 0xf2, 0x0a, 0xe8, 0x03,
  0x01, 0x03, 0xf5, 0xf5, 0xfc, 0x03, 0xd6, 0xf7, 0xdd, 0x02, 0xb2, 0xee,
  0xa7, 0x12, 0xe6, 0xf6, 0xe0, 0xf9, 0xf1, 0x01, 0xf6, 0xcf, 0xfe, 0x06,
  0x00, 0xc4, 0xd5, 0x0e, 0xfc, 0xe7, 0xd6, 0x08, 0x02, 0xe0, 0xd7, 0xff,
  0x07, 0xfa, 0xf6, 0xdf, 0x00, 0xec, 0x12, 0xe2, 0x03, 0x0b, 0x04, 0xd8,
  0x10, 0x2b, 0xdc, 0xcb, 0xf5, 0x06, 0xf5, 0xf3, 0xec, 0x00, 0xf6, 0xf8,
  0x01, 0x05, 0xfa, 0xfa, 0xfd, 0x06, 0xf0, 0xf5, 0xe8, 0x02, 0xd7, 0xa7,
  0xb8, 0x07, 0xba, 0xf9, 0xc0, 0x01, 0xcf, 0xff, 0xc4, 0x06, 0xb4, 0x09,
  0xde, 0x14, 0xb6, 0x03, 0xe5, 0x0c, 0xbf, 0xf4, 0xf2, 0x18, 0xc8, 0xe6,
  0xf9, 0x18, 0xdb, 0xe0, 0xea, 0x0b, 0xe6, 0xf2, 0x0f, 0x04, 0xec, 0xce,
  0xed, 0xfc, 0x01, 0xde, 0x02, 0x06, 0x04, 0xf9, 0xfc, 0x04, 0x02, 0x09,
  0xfe, 0x0d, 0xf9, 0x02, 0xf4, 0xfa, 0xed, 0xec, 0xf9, 0x03, 0xd2, 0xcc,
  0xf5, 0x07, 0xca, 0xaf, 0xf4, 0x08, 0xc1, 0xd5, 0xdf, 0x01, 0xc3, 0xde,
  0xf3, 0x02, 0xf3, 0xf9, 0xea, 0xfc, 0x0c, 0x19, 0x06, 0xfe, 0x04, 0xd3,
  0x02, 0x03, 0xea, 0xe7, 0x01, 0x00, 0xf7, 0xdf, 0x01, 0xfe, 0xec, 0xfe,
  0x0a, 0x05, 0xf8, 0x04, 0x06, 0x09, 0xf8, 0x00, 0x05, 0xfb, 0x07, 0x07,
  0xf3, 0xf8, 0xfe, 0x11, 0xdf, 0xe4, 0xfc, 0xf7, 0xd4, 0xc9, 0xe1, 0xf4,
  0xb8, 0xc0, 0xe6, 0xec, 0xd1, 0xd6, 0xd2, 0xf6, 0xd0, 0xd9, 0xb6, 0xfd,
  0xa8, 0xab, 0xb6, 0xf6, 0xa3, 0xdd, 0xd1, 0xfb, 0xb4, 0xdf, 0x88, 0x0e,
  0xc5, 0xf1, 0x90, 0x0f, 0xf3, 0x02, 0xef, 0x00, 0x15, 0xef, 0xef, 0x02,
  0xfb, 0x04, 0x02, 0xf9, 0xf0, 0xfb, 0xfe, 0x00, 0xff, 0x04, 0xf3, 0xf3,
  0xfc, 0x00, 0xe4, 0xe5, 0x1d, 0xfe, 0xc8, 0xf2, 0xfd, 0x02, 0xe2, 0xe8,
  0x09, 0x00, 0xcb, 0xea, 0x0c, 0x03, 0xef, 0xde, 0x0f, 0x03, 0xe0, 0xe6,
  0xef, 0xf5, 0xf9, 0xb0, 0xbd, 0xf2, 0xeb, 0xf3, 0xbc, 0xea, 0xb3, 0xe1,
  0xd1, 0xf6, 0xcb, 0x08, 0xeb, 0xf3, 0xcc, 0x06, 0x05, 0x0c, 0xf9, 0xf5,
  0xfb, 0x03, 0xf2, 0xfa, 0xf9, 0xfb, 0xd1, 0x09, 0x13, 0xfd, 0xc3, 0x0a,
  0x11, 0x0a, 0x14, 0x11, 0x0e, 0x07, 0xef, 0x10, 0x0b, 0x03, 0xf9, 0x12,
  0x01, 0x00, 0xff, 0xe0, 0x04, 0xfc, 0xfb, 0xf4, 0xff, 0xfe, 0xfc, 0xcf,
  0xf8, 0xfc, 0xfb, 0xf0, 0xf8, 0xf8, 0xfc, 0xec, 0xc7, 0xfb, 0xeb, 0xef,
  0xce, 0xec, 0xdc, 0xff, 0x10, 0x18, 0xee, 0x05, 0x0a, 0x00, 0xe0, 0x06,
  0x05, 0x08, 0xa6, 0x09, 0x0a, 0x0a, 0xe8, 0x14, 0x0b, 0x10, 0xf1, 0x11,
  0x0b, 0x08, 0xf5, 0x0a, 0x09, 0x07, 0xf9, 0x0b, 0x06, 0x02, 0xff, 0xe0,
  0x04, 0x05, 0xff, 0xe7, 0xff, 0x03, 0x0d, 0xe5, 0xf9, 0x01, 0x03, 0x00,
  0x04, 0x09, 0x0a, 0x09, 0xcf, 0x00, 0xfa, 0xfd, 0xd8, 0x00, 0xf0, 0x07,
  0x18, 0x11, 0xdf, 0x1d, 0x0c, 0x0e, 0xe2, 0x0c, 0x07, 0x07, 0xfa, 0x13,
  0x0e, 0x15, 0xff, 0x0d, 0x12, 0x0e, 0x01, 0x13, 0x04, 0x11, 0xff, 0x05,
  0x01, 0x0a, 0x00, 0xfb, 0x01, 0x05, 0xfb, 0x08, 0xff, 0x11, 0x0e, 0x09,
  0xfc, 0x11, 0x05, 0xfe, 0xfc, 0x00, 0x04, 0xe6, 0xfc, 0x08, 0x09, 0xfc,
  0xf2, 0x05, 0x16, 0xf5, 0xee, 0xfc, 0x11, 0x04, 0x07, 0x15, 0xdf, 0x17,
  0x07, 0x0a, 0x0a, 0xfd, 0x08, 0x12, 0x10, 0x03, 0x12, 0x19, 0x03, 0xfe,
  0x0a, 0x04, 0x0f, 0xfd, 0xfa, 0x15, 0x09, 0xfe, 0xee, 0x11, 0x00, 0xe3,
  0xef, 0x0f, 0x04, 0x01, 0xf3, 0x20, 0x0b, 0x09, 0xf0, 0x0c, 0x0d, 0x07,
  0xf3, 0x03, 0x02, 0xee, 0xee, 0xf5, 0x0d, 0x05, 0xfa, 0xf4, 0xea, 0xf1,
  0xf2, 0xf2, 0xf6, 0xfe, 0x1f, 0x13, 0x00, 0x1e, 0x06, 0x25, 0x19, 0xe4,
  0x06, 0x0d, 0x1a, 0x01, 0xec, 0x18, 0x06, 0xf8, 0xee, 0x2f, 0x0a, 0xfc,
  0xe4, 0x22, 0x01, 0xf0, 0xe0, 0x0a, 0x01, 0xd6, 0xe3, 0xe5, 0x06, 0x07,
  0x02, 0xc9, 0x04, 0x11, 0x09, 0x0e, 0x06, 0x0f, 0x08, 0x13, 0x06, 0x0d,
  0x03, 0x0c, 0xf9, 0x16, 0xe5, 0x03, 0x0c, 0xfb, 0xe8, 0xf7, 0xe4, 0x06,
  0x1a, 0xec, 0x0f, 0x06, 0xfd, 0xe0, 0x28, 0xdf, 0xf3, 0x01, 0x13, 0xfd,
  0xee, 0x18, 0x0d, 0xf6, 0xe5, 0x26, 0x06, 0xf3, 0xe7, 0x19, 0xf6, 0xe1,
  0xe8, 0x09, 0xfe, 0xd2, 0xf8, 0xe9, 0x00, 0x07, 0x06, 0xef, 0x06, 0x0c,
  0x05, 0xfb, 0x09, 0x0c, 0x10, 0x0a, 0x0b, 0x17, 0xfd, 0x02, 0x05, 0x11,
  0xf2, 0xf8, 0xf6, 0xfe, 0xd5, 0xef, 0x04, 0x00, 0xff, 0xda, 0xfc, 0x04,
  0xed, 0xdd, 0x13, 0xc6, 0xde, 0xfd, 0xfc, 0xf9, 0xf2, 0x04, 0xfc, 0xf3,
  0xee, 0x1c, 0xf7, 0xf0, 0xf3, 0x0c, 0xfc, 0xe6, 0xf4, 0x10, 0x03, 0xf7,
  0xf7, 0xf2, 0x04, 0xfe, 0x00, 0x10, 0x07, 0x02, 0x07, 0x01, 0x04, 0x03,
  0x07, 0x11, 0x1f, 0x03, 0xfa, 0x04, 0x1f, 0xe3, 0x04, 0xfe, 0x0b, 0xfa,
  0x05, 0x03, 0xe1, 0x0a, 0xd6, 0xe4, 0xfb, 0x01, 0xd8, 0x07, 0x08, 0xd6,
  0xe6, 0x05, 0x0c, 0xe5, 0xf1, 0x02, 0xec, 0xf2, 0xf5, 0x0c, 0xfb, 0xf1,
  0xf4, 0x0a, 0x01, 0xf9, 0xe3, 0x08, 0xfd, 0xee, 0xd4, 0xe6, 0x01, 0xfb,
  0xe3, 0xce, 0x08, 0xfb, 0x04, 0xef, 0x03, 0xfa, 0xf8, 0x0b, 0x0b, 0xf0,
  0xf6, 0x03, 0xec, 0xd8, 0xf9, 0xec, 0xdb, 0xfb, 0xfa, 0xf1, 0xed, 0x14,
  0xcb, 0xdd, 0xf1, 0xe9, 0x09, 0x11, 0x06, 0xcb, 0xea, 0x00, 0x00, 0xde,
  0xf7, 0xfd, 0x12, 0xec, 0xf1, 0x00, 0x0f, 0xe4, 0xe9, 0xf2, 0x0a, 0xf5,
  0xf0, 0x0a, 0x04, 0xfe, 0xf1, 0xfa, 0xfe, 0xfc, 0xe8, 0x03, 0x00, 0x00,
  0xe2, 0x0d, 0xf8, 0xf6, 0xe5, 0x0e, 0xfa, 0xec, 0xf1, 0xec, 0xb6, 0xd5,
  0xd6, 0xf8, 0xda, 0x02, 0xee, 0x04, 0xf9, 0x17, 0xfe, 0x03, 0xfa, 0xf8,
  0x06, 0x07, 0x0a, 0xc1, 0x1b, 0xea, 0x10, 0xf2, 0xf7, 0xe9, 0x11, 0xfe,
  0xe1, 0xde, 0x0b, 0xe8, 0xf2, 0xf7, 0x06, 0xfd, 0xf8, 0xe0, 0x04, 0x00,
  0xf2, 0xde, 0x02, 0x09, 0xd9, 0xff, 0xfe, 0x03, 0xe8, 0xf3, 0xfb, 0x02,
  0xe6, 0xf5, 0xf4, 0x04, 0xef, 0x0a, 0xf6, 0xfe, 0xc3, 0xfe, 0x01, 0x01,
  0xfd, 0xf9, 0xff, 0x0a, 0x23, 0xee, 0xf4, 0x07, 0x1e, 0xf4, 0xfb, 0xea,
  0x03, 0xfe, 0x18, 0xf8, 0xfa, 0x02, 0x18, 0xfd, 0xf1, 0xf2, 0x10, 0xe9,
  0xf7, 0xe8, 0x0f, 0xfe, 0xfd, 0xda, 0x08, 0x00, 0xfe, 0xe1, 0x10, 0x0d,
  0xf6, 0xfa, 0x06, 0x0a, 0xed, 0xfc, 0x07, 0x07, 0xe8, 0x01, 0x14, 0x05,
  0xda, 0x07, 0xe4, 0x11, 0xd0, 0x06, 0x04, 0xec, 0x09, 0xfa, 0x00, 0x06,
  0x0e, 0xf2, 0x06, 0xfd, 0x0b, 0xf6, 0x20, 0xfd, 0x11, 0xfd, 0x23, 0xee,
  0x13, 0xff, 0x0d, 0xea, 0x14, 0x03, 0x0e, 0xf8, 0x0e, 0xee, 0x0f, 0x06,
  0x0a, 0xe7, 0x11, 0x0f, 0x05, 0xeb, 0x0c, 0x0f, 0x06, 0xf1, 0x04, 0x0f,
  0x07, 0xff, 0x1d, 0x13, 0xf1, 0x05, 0x06, 0x13, 0x10, 0xfe, 0xeb, 0xf7,
  0x02, 0x01, 0xf2, 0xf0, 0x04, 0xfa, 0xf7, 0xfe, 0xfd, 0x09, 0xff, 0x02,
  0x04, 0x06, 0x01, 0xfa, 0xfd, 0x15, 0xfa, 0x03, 0xd7, 0x10, 0x02, 0xe6,
  0x05, 0x0d, 0xe2, 0x02, 0x08, 0xfa, 0xdc, 0xf7, 0xfb, 0x04, 0xba, 0x03,
  0xe5, 0x07, 0xc3, 0x0f, 0xf0, 0x01, 0xcf, 0x08, 0xeb, 0x0a, 0xfc, 0xe5,
  0x0a, 0x03, 0xf3, 0xf8, 0x04, 0x01, 0xe8, 0x04, 0xd6, 0x28, 0xfa, 0xf7,
  0xe5, 0xf3, 0x03, 0xf3, 0xf8, 0x02, 0x05, 0xff, 0xf0, 0x09, 0xfa, 0xf9,
  0xee, 0x0b, 0xe8, 0xf1, 0x03, 0xf8, 0xec, 0xf1, 0xf3, 0xfd, 0x1a, 0xe7,
  0x00, 0x03, 0xfa, 0xe4, 0x05, 0x08, 0xe6, 0x05, 0xff, 0x01, 0x0a, 0xf1,
  0x02, 0x04, 0xfc, 0x14, 0x02, 0x04, 0x00, 0xfd, 0x05, 0x06, 0xf6, 0x05,
  0xf0, 0x02, 0xfa, 0x14, 0xf4, 0x05, 0xf1, 0x04, 0x08, 0x08, 0xfc, 0xf9,
  0xec, 0xe6, 0x01, 0xf2, 0xfa, 0xf2, 0xee, 0xee, 0xf7, 0xf1, 0x10, 0xd9,
  0xfd, 0xf5, 0x00, 0xf5, 0xf9, 0xf7, 0xf4, 0xec, 0x07, 0xff, 0xf8, 0xf2,
  0x03, 0xff, 0x08, 0x01, 0x08, 0x03, 0x07, 0xfc, 0x04, 0x03, 0x05, 0xf9,
  0x04, 0x03, 0x02, 0x0a, 0x06, 0x04, 0x02, 0x0e, 0xfc, 0x00, 0xef, 0x04,
  0xf6, 0xfa, 0x04, 0x0b, 0xef, 0xff, 0x09, 0xf7, 0xed, 0x14, 0xe7, 0x02,
  0x05, 0xfb, 0x12, 0xe9, 0x00, 0xf0, 0x06, 0xde, 0xfe, 0xf3, 0xfd, 0xfd,
  0x03, 0xf0, 0x02, 0xfd, 0x02, 0xfe, 0xfe, 0xfe, 0x03, 0x07, 0x01, 0x00,
  0x04, 0xfd, 0x03, 0xfd, 0x05, 0x00, 0x01, 0xf7, 0x08, 0x01, 0xee, 0x01,
  0x04, 0x05, 0xfc, 0x0a, 0xff, 0x03, 0xfc, 0xfe, 0x01, 0x07, 0xfc, 0xe9,
  0x02, 0x03, 0x00, 0xfa, 0x10, 0x03, 0xfd, 0xf1, 0x03, 0xf0, 0xeb, 0xea,
  0x0a, 0xf2, 0xed, 0xf5, 0x0e, 0xf5, 0xfd, 0x05, 0x0b, 0xf5, 0x00, 0x0a,
  0x0a, 0xf2, 0xfc, 0xfb, 0x0b, 0xfd, 0xf7, 0x05, 0x04, 0x01, 0xf5, 0x08,
  0x01, 0xf4, 0x03, 0x00, 0x03, 0xf3, 0x02, 0x01, 0x08, 0xff, 0x00, 0x0e,
  0x08, 0x05, 0xfc, 0x1e, 0xfb, 0x07, 0x00, 0xf6, 0x0c, 0xfd, 0xfd, 0xef,
  0x06, 0x09, 0x0c, 0xfd, 0x18, 0x14, 0xe6, 0x02, 0x0d, 0xf0, 0xf6, 0x0f,
  0x10, 0xf3, 0xfd, 0x01, 0x12, 0xf0, 0xfa, 0x0c, 0x06, 0xf7, 0xef, 0x0c,
  0x01, 0x04, 0xf1, 0x10, 0x06, 0xf2, 0xf4, 0x0b, 0x09, 0xf3, 0xfe, 0xfa,
  0x0b, 0xf6, 0x04, 0x02, 0x06, 0xf2, 0x06, 0xf4, 0x07, 0xed, 0x14, 0x0e,
  0x0c, 0x02, 0x12, 0xf7, 0xf8, 0x0b, 0xeb, 0xf0, 0x05, 0xef, 0x00, 0x00,
  0x04, 0xd8, 0xdf, 0x03, 0xfa, 0xef, 0xf4, 0x0c, 0x0b, 0xf2, 0xfc, 0x09,
  0x11, 0xfa, 0xf1, 0x0f, 0x0a, 0xee, 0xf4, 0x0b, 0x03, 0xf2, 0xfe, 0x0c,
  0xfe, 0xe9, 0xf3, 0xf9, 0x04, 0xea, 0x03, 0xdb, 0x08, 0xfa, 0x09, 0xd7,
  0x01, 0xf2, 0x04, 0xbd, 0x06, 0xf5, 0x20, 0xf6, 0x07, 0xf6, 0xdd, 0xfe,
  0x02, 0xfc, 0x00, 0xef, 0xe4, 0xed, 0xf2, 0xfa, 0xd4, 0xea, 0xe7, 0x11,
  0xfd, 0xf4, 0xfa, 0xfb, 0x0a, 0xf8, 0xfd, 0x0b, 0x06, 0xee, 0xfe, 0x0e,
  0x04, 0xdf, 0x07, 0x08, 0x04, 0xf6, 0x05, 0x0a, 0x02, 0xfa, 0xf9, 0xf5,
  0x04, 0xdf, 0x03, 0xf2, 0x0a, 0xfa, 0xf6, 0xf1, 0xfd, 0x07, 0xdf, 0xeb,
  0xff, 0xf8, 0xe4, 0x0d, 0xf9, 0xfc, 0xd2, 0x11, 0x01, 0x03, 0xe0, 0xf5,
  0xdf, 0xdb, 0xe8, 0x01, 0xdc, 0xe0, 0xdb, 0xdc, 0xf2, 0xe8, 0xfd, 0xe6,
  0xf5, 0xeb, 0x04, 0xfe, 0xf7, 0xdd, 0x06, 0x04, 0x02, 0xe1, 0x0b, 0x08,
  0x05, 0xe5, 0x07, 0x00, 0x01, 0xd8, 0xf3, 0xfb, 0x08, 0xea, 0xeb, 0xf7,
  0xf9, 0x0d, 0xe3, 0xfa, 0xf9, 0x0b, 0xe7, 0x01, 0xec, 0x05, 0xf5, 0x07,
  0xc1, 0x02, 0xea, 0x0d, 0x0b, 0xfc, 0xd4, 0xf4, 0xc3, 0xf3, 0xc2, 0xe2,
  0xe0, 0xf0, 0x01, 0xd0, 0xf7, 0xf6, 0x02, 0x05, 0x01, 0xe8, 0x08, 0xf7,
  0x03, 0xc2, 0x05, 0xfc, 0x04, 0xa5, 0x07, 0xfe, 0x06, 0xe3, 0xf9, 0xfe,
  0xff, 0xf7, 0xf5, 0x06, 0xfd, 0x05, 0xf5, 0xfe, 0xf9, 0xfc, 0xf9, 0xfa,
  0xe4, 0xe8, 0xf3, 0xff, 0xdb, 0xee, 0xfa, 0x02, 0xcc, 0xf4, 0xe1, 0x02,
  0xe9, 0x06, 0xe0, 0xfb, 0xcf, 0x02, 0xd0, 0xe5, 0xde, 0xee, 0xed, 0xfc,
  0x04, 0xde, 0xfd, 0x00, 0x07, 0xd3, 0x00, 0x00, 0x07, 0xd4, 0xfc, 0x02,
  0x0a, 0xf1, 0xfc, 0x03, 0x05, 0xfa, 0xf8, 0x05, 0x01, 0xfc, 0xfb, 0xfd,
  0x02, 0xe0, 0xf7, 0xfb, 0x04, 0xc4, 0xfe, 0x02, 0xf8, 0xf3, 0x04, 0x00,
  0xf9, 0x02, 0x11, 0xee, 0xe9, 0x12, 0xe4, 0xf1, 0xf0, 0x19, 0xea, 0xfc,
  0xe1, 0xed, 0xe3, 0xe2, 0xec, 0xd8, 0x06, 0x0e, 0xf5, 0xfb, 0xf2, 0x10,
  0x04, 0xe0, 0xf2, 0x0b, 0x0b, 0xd8, 0xf8, 0x07, 0x08, 0xc6, 0xf7, 0x04,
  0x08, 0xf0, 0xf9, 0x06, 0x02, 0xea, 0x00, 0x05, 0x06, 0xcf, 0x0b, 0xf5,
  0x01, 0xb8, 0xff, 0xe6, 0x04, 0xe2, 0x0f, 0xfb, 0x18, 0xf2, 0xfd, 0xf1,
  0x13, 0x08, 0xfd, 0xfd, 0xf8, 0x0f, 0xf0, 0xf8, 0xde, 0x05, 0xf9, 0xf2,
  0xe5, 0x11, 0xff, 0x01, 0xe8, 0x02, 0xd2, 0x11, 0xf7, 0x0e, 0xe7, 0x0a,
  0x02, 0xef, 0xf4, 0x0e, 0x03, 0xf3, 0xea, 0x04, 0x07, 0xcd, 0xcf, 0xfd,
  0x01, 0xda, 0xbd, 0xf5, 0x0c, 0xd4, 0xf7, 0xf7, 0xfd, 0x00, 0xeb, 0xef,
  0x02, 0xfb, 0xec, 0xff, 0x0d, 0xff, 0xd9, 0x0d, 0x1d, 0xfb, 0xfb, 0xe9,
  0xf5, 0x01, 0x00, 0x00, 0xf7, 0x1c, 0xf7, 0xf8, 0xf1, 0x1a, 0xf6, 0xf6,
  0xf0, 0x04, 0xb8, 0x03, 0xde, 0x01, 0xd6, 0x00, 0xdf, 0x03, 0xe0, 0xef,
  0xde, 0xfd, 0xff, 0x02, 0xfe, 0x02, 0xd9, 0xf4, 0x13, 0x0d, 0xed, 0xf8,
  0xfd, 0x04, 0xf3, 0xf4, 0x04, 0xf9, 0xea, 0xf7, 0xf3, 0x03, 0x05, 0xed,
  0xf2, 0xfc, 0xe9, 0xfa, 0xef, 0x07, 0xed, 0xe1, 0xdd, 0x0c, 0xf8, 0xfe,
  0xfb, 0x0b, 0x06, 0x00, 0x01, 0x02, 0xfe, 0xff, 0xfa, 0xf6, 0x04, 0x02,
  0xf4, 0xec, 0xef, 0x01, 0xd3, 0xe9, 0xe9, 0x08, 0xac, 0x03, 0xe3, 0xfd,
  0xdb, 0xf3, 0xd2, 0x0d, 0xd4, 0xf7, 0xfb, 0xef, 0xcc, 0xf7, 0xc3, 0xf3,
  0xe0, 0xe6, 0xa7, 0xed, 0xd8, 0xdd, 0xd8, 0xf6, 0xdb, 0xde, 0xee, 0x0d,
  0xea, 0xf6, 0xe7, 0x02, 0xe7, 0x02, 0x03, 0xfb, 0x02, 0xfd, 0x05, 0x03,
  0xfd, 0xf2, 0x03, 0xf8, 0xd8, 0x03, 0xea, 0xf1, 0xdb, 0xf9, 0xd3, 0xcf,
  0xfa, 0xfe, 0xcd, 0xc3, 0x0c, 0x02, 0xb0, 0xfd, 0x0b, 0x03, 0xde, 0xeb,
  0xf8, 0x05, 0xe3, 0xdf, 0x03, 0x04, 0xe6, 0xd0, 0x06, 0x02, 0xef, 0xd1,
  0xfe, 0xff, 0xf3, 0xe3, 0xae, 0xfb, 0xf4, 0xc8, 0xbc, 0xfc, 0xe0, 0xfe,
  0xf1, 0xf5, 0xcc, 0x05, 0xfc, 0xfb, 0xff, 0x06, 0xd5, 0xdb, 0xf0, 0xf5,
  0xde, 0xfc, 0xca, 0xce, 0x06, 0xf6, 0xbc, 0xd2, 0x0c, 0xf4, 0xfb, 0xd7,
  0x0a, 0xfd, 0x05, 0xea, 0x08, 0xff, 0xf4, 0xe9, 0x07, 0x01, 0x04, 0xdc,
  0x04, 0x00, 0xfe, 0xd5, 0x01, 0x04, 0x00, 0xb9, 0xff, 0x00, 0xeb, 0xd3,
  0x01, 0xfb, 0xdf, 0xf6, 0xe4, 0xfe, 0xe3, 0xff, 0xd6, 0xf0, 0xfa, 0x07,
  0xf7, 0xee, 0xe7, 0x15, 0xd1, 0xef, 0xdf, 0xdc, 0x02, 0xf3, 0x17, 0xd5,
  0x01, 0xf2, 0x11, 0xe6, 0xfd, 0xf8, 0xff, 0xd4, 0x00, 0x02, 0x00, 0xf7,
  0x02, 0x0b, 0xfd, 0xed, 0x00, 0x01, 0x03, 0xd9, 0x07, 0x01, 0xfe, 0xd0,
  0x03, 0x05, 0xef, 0xe4, 0xfb, 0xfa, 0xe6, 0xc1, 0xf8, 0xfb, 0xdd, 0xe8,
  0xf6, 0xfd, 0xde, 0x02, 0xd1, 0x02, 0xde, 0x09, 0xf0, 0xfe, 0xe3, 0xfc,
  0xcc, 0xe4, 0xfe, 0xe4, 0xf9, 0xf5, 0x04, 0xdc, 0xee, 0xf4, 0xfd, 0xf4,
  0xf6, 0xf0, 0x03, 0xef, 0xff, 0x08, 0xfd, 0xfc, 0x01, 0x07, 0x06, 0xf3,
  0xfc, 0x02, 0xfe, 0xfe, 0x03, 0x00, 0xee, 0xf0, 0x0e, 0xf6, 0xfd, 0xfd,
  0x09, 0xf0, 0xec, 0x01, 0xeb, 0xfe, 0xdd, 0xdf, 0xe9, 0xf8, 0xe9, 0x06,
  0xe9, 0x03, 0xe3, 0x03, 0xe8, 0xe3, 0xf4, 0x04, 0xf9, 0xed, 0xf9, 0xf6,
  0x0c, 0xe7, 0x0a, 0x01, 0x08, 0xe4, 0xfd, 0x02, 0x09, 0xef, 0x03, 0x02,
  0x11, 0xcb, 0x00, 0x06, 0x07, 0xe0, 0xfe, 0xff, 0x0b, 0xf8, 0x04, 0x05,
  0x08, 0xeb, 0x02, 0xfd, 0xfa, 0xed, 0x06, 0xfc, 0xfd, 0xf7, 0xf6, 0xf6,
  0x02, 0xef, 0xf9, 0xef, 0xd6, 0x06, 0xe5, 0x08, 0xf7, 0x09, 0xf7, 0x08,
  0xf3, 0xee, 0x0e, 0xec, 0x1e, 0xe9, 0x06, 0x11, 0x12, 0xdd, 0xfd, 0x0c,
  0x07, 0xdc, 0xf8, 0x08, 0x0d, 0xc0, 0xfe, 0x06, 0x08, 0xe2, 0xfc, 0x08,
  0x11, 0xf5, 0x0a, 0x0a, 0x0b, 0xfb, 0x04, 0xf6, 0xfc, 0xfe, 0xff, 0xf4,
  0xfb, 0xf3, 0x04, 0xfb, 0xf3, 0xe9, 0xfd, 0xfd, 0xe8, 0xf1, 0xf9, 0xf5,
  0xe4, 0xfa, 0xf7, 0x14, 0xfa, 0xfb, 0xe7, 0xff, 0xe4, 0xe6, 0x10, 0x02,
  0x09, 0xcf, 0xf5, 0x1f, 0xfd, 0x06, 0x09, 0x15, 0x0d, 0xe2, 0x01, 0x0c,
  0x0d, 0xdd, 0xfa, 0x0b, 0x0d, 0xf9, 0xee, 0x07, 0x0f, 0xf6, 0x08, 0xfb,
  0x05, 0x05, 0x03, 0xfd, 0xf3, 0x08, 0x01, 0x04, 0xe1, 0xf0, 0xfe, 0xf8,
  0xe4, 0xd6, 0x0e, 0xf2, 0xe1, 0x04, 0x06, 0xfd, 0xd1, 0xfd, 0xd4, 0xef,
  0xf2, 0x03, 0xeb, 0xf7, 0xd6, 0xe5, 0xfa, 0xfc, 0xfe, 0xdd, 0xf9, 0x2f,
  0x07, 0xf1, 0x00, 0x09, 0x0c, 0xee, 0x01, 0x06, 0x0b, 0xfc, 0xd1, 0x08,
  0x0d, 0xfc, 0xf6, 0x02, 0x03, 0xe8, 0x0a, 0xf0, 0xff, 0x00, 0x08, 0xfb,
  0xdc, 0xd4, 0x03, 0x07, 0xca, 0x8a, 0x01, 0x01, 0xe1, 0xda, 0x03, 0xf1,
  0xe9, 0xf5, 0xed, 0xf7, 0x02, 0x09, 0x0a, 0xfa, 0xdd, 0x16, 0x0a, 0xfa,
  0xf4, 0xd8, 0xf1, 0x02, 0xdd, 0xfd, 0xf3, 0x16, 0xee, 0x09, 0xfb, 0x0a,
  0x00, 0x0e, 0xe8, 0x05, 0x09, 0x0a, 0xde, 0x0b, 0xfd, 0x0a, 0x04, 0xf8,
  0xfd, 0x08, 0x04, 0xef, 0xf2, 0x04, 0x02, 0x00, 0xe0, 0xbf, 0x01, 0x00,
  0xe7, 0xda, 0xff, 0x05, 0xf2, 0x09, 0x04, 0xff, 0x05, 0x09, 0xfa, 0x17,
  0x08, 0x04, 0x04, 0x08, 0xfd, 0xf8, 0xf6, 0xf4, 0xe0, 0x06, 0xfc, 0xf3,
  0xc7, 0xf7, 0xf2, 0xe2, 0xfe, 0x0f, 0xd8, 0x03, 0xf9, 0x10, 0xed, 0x05,
  0xf9, 0x08, 0xff, 0xff, 0x00, 0x10, 0x02, 0xef, 0xf7, 0x05, 0x05, 0xeb,
  0xf1, 0x07, 0x02, 0x01, 0xf5, 0xf2, 0x01, 0x00, 0xed, 0x25, 0x08, 0x0b,
  0xf4, 0x08, 0xf8, 0x0c, 0x0b, 0xe5, 0xfe, 0x1f, 0x11, 0x03, 0x10, 0x10,
  0x2c, 0x04, 0xfa, 0x07, 0xe7, 0xe6, 0xdb, 0xed, 0xf2, 0xfa, 0x08, 0xc0,
  0x16, 0xfa, 0x00, 0xf2, 0xf1, 0x12, 0x0a, 0x00, 0xfb, 0x1d, 0x08, 0xf2,
  0xf7, 0x1d, 0x0a, 0xef, 0xf6, 0x19, 0x09, 0x00, 0xfd, 0x0b, 0x03, 0x06,
  0xfc, 0x16, 0xff, 0x08, 0x01, 0x2c, 0xff, 0x03, 0x06, 0x04, 0xf4, 0x0c,
  0x01, 0x00, 0xf3, 0x0f, 0x0d, 0x07, 0xf2, 0x18, 0x14, 0xfa, 0x01, 0xfa,
  0xf7, 0x08, 0xf3, 0xf8, 0x0e, 0x02, 0xfe, 0xd8, 0x13, 0xfe, 0x18, 0xf3,
  0xf4, 0x0c, 0x12, 0xeb, 0xfe, 0x11, 0x04, 0xed, 0xf2, 0xfc, 0x08, 0xf6,
  0xfe, 0xf5, 0x06, 0x0c, 0xf4, 0x18, 0x0f, 0x0a, 0xf8, 0x0e, 0xff, 0x09,
  0xf1, 0x15, 0x0b, 0x06, 0xe4, 0x04, 0xd6, 0x0b, 0x05, 0x00, 0xec, 0x0e,
  0x03, 0xfc, 0x01, 0x1b, 0xfc, 0xff, 0x02, 0xff, 0xfd, 0xff, 0xf6, 0xf6,
  0x06, 0xfa, 0xf6, 0xf3, 0x08, 0xfb, 0x26, 0xf7, 0x09, 0xf6, 0x1e, 0xf7,
  0x0d, 0xf4, 0x06, 0x13, 0x0b, 0xf9, 0x18, 0x08, 0x04, 0xfb, 0x16, 0x08,
  0x04, 0xfe, 0x14, 0x0e, 0xfb, 0xf9, 0x04, 0x06, 0x02, 0x03, 0x0a, 0x0b,
  0xf0, 0xfd, 0xdd, 0x1a, 0x02, 0xfd, 0xf4, 0x0c, 0xf5, 0x00, 0x08, 0xea,
  0xf2, 0x03, 0xfd, 0xfd, 0xe2, 0xfe, 0xff, 0xff, 0x04, 0x00, 0x00, 0x00,
  0x28, 0x00, 0x00, 0x00, 0xc9, 0xff, 0xff, 0xff, 0x93, 0x02, 0x00, 0x00,
  0x1a, 0x01, 0x00, 0x00, 0x7a, 0x00, 0x00, 0x00, 0xb4, 0xff, 0xff, 0xff,
  0x24, 0x00, 0x00, 0x00, 0x2c, 0xff, 0xff, 0xff, 0xd5, 0x00, 0x00, 0x00,
  0x5c, 0xfd, 0xff, 0xff, 0x82, 0xff, 0xff, 0xff, 0x16, 0xff, 0xff, 0xff,
  0x04, 0x00, 0x00, 0x00, 0x08, 0x00, 0x00, 0x00, 0xff, 0xff, 0xff, 0xff,
  0x10, 0x03, 0x00, 0x00, 0x2a, 0xff, 0xff, 0xff, 0x04, 0x00, 0x00, 0x00,
  0x10, 0x00, 0x00, 0x00, 0x3b, 0x00, 0x00, 0x00, 0x01, 0xfc, 0xff, 0xff,
  0xd6, 0x0a, 0x00, 0x00, 0xe1, 0x00, 0x00, 0x00, 0x46, 0xff, 0xff, 0xff,
  0x04, 0x00, 0x00, 0x00, 0x20, 0x00, 0x00, 0x00, 0x24, 0xfb, 0xff, 0xff,
  0xdc, 0xe7, 0xff, 0xff, 0x6c, 0xd6, 0xff, 0xff, 0xf8, 0xe2, 0xff, 0xff,
  0x5b, 0xf8, 0xff, 0xff, 0x4d, 0xf5, 0xff, 0xff, 0xc4, 0xe9, 0xff, 0xff,
  0xfb, 0xdf, 0xff, 0xff, 0x78, 0xf6, 0xff, 0xff, 0x7c, 0xf6, 0xff, 0xff,
  0x0f, 0x00, 0x00, 0x00, 0x4d, 0x4c, 0x49, 0x52, 0x20, 0x43, 0x6f, 0x6e,
  0x76, 0x65, 0x72, 0x74, 0x65, 0x64, 0x2e, 0x00, 0x01, 0x00, 0x00, 0x00,
  0x14, 0x00, 0x00, 0x00, 0x00, 0x00, 0x0e, 0x00, 0x18, 0x00, 0x14, 0x00,
  0x10, 0x00, 0x0c, 0x00, 0x08, 0x00, 0x04, 0x00, 0x0e, 0x00, 0x00, 0x00,
  0x14, 0x00, 0x00, 0x00, 0x1c, 0x00, 0x00, 0x00, 0xc4, 0x01, 0x00, 0x00,
  0xc8, 0x01, 0x00, 0x00, 0xcc, 0x01, 0x00, 0x00, 0x04, 0x00, 0x00, 0x00,
  0x6d, 0x61, 0x69, 0x6e, 0x00, 0x00, 0x00, 0x00, 0x06, 0x00, 0x00, 0x00,
  0x60, 0x01, 0x00, 0x00, 0xfc, 0x00, 0x00, 0x00, 0xac, 0x00, 0x00, 0x00,
  0x84, 0x00, 0x00, 0x00, 0x40, 0x00, 0x00, 0x00, 0x04, 0x00, 0x00, 0x00,
  0x26, 0xff, 0xff, 0xff, 0x1c, 0x00, 0x00, 0x00, 0x00, 0x00, 0x00, 0x09,
  0x1c, 0x00, 0x00, 0x00, 0x20, 0x00, 0x00, 0x00, 0x04, 0x00, 0x00, 0x00,
  0x00, 0x00, 0x06, 0x00, 0x08, 0x00, 0x04, 0x00, 0x06, 0x00, 0x00, 0x00,
  0x00, 0x00, 0x80, 0x3f, 0x01, 0x00, 0x00, 0x00, 0x0d, 0x00, 0x00, 0x00,
  0x01, 0x00, 0x00, 0x00, 0x0c, 0x00, 0x00, 0x00, 0x5e, 0xff, 0xff, 0xff,
  0x14, 0x00, 0x00, 0x00, 0x00, 0x00, 0x00, 0x08, 0x10, 0x00, 0x00, 0x00,
  0x14, 0x00, 0x00, 0x00, 0x03, 0x00, 0x00, 0x00, 0x3c, 0xf7, 0xff, 0xff,
  0x01, 0x00, 0x00, 0x00, 0x0c, 0x00, 0x00, 0x00, 0x03, 0x00, 0x00, 0x00,
  0x0b, 0x00, 0x00, 0x00, 0x05, 0x00, 0x00, 0x00, 0x04, 0x00, 0x00, 0x00,
  0x00, 0x00, 0x0a, 0x00, 0x10, 0x00, 0x0c, 0x00, 0x08, 0x00, 0x04, 0x00,
  0x0a, 0x00, 0x00, 0x00, 0x0c, 0x00, 0x00, 0x00, 0x10, 0x00, 0x00, 0x00,
  0x02, 0x00, 0x00, 0x00, 0x01, 0x00, 0x00, 0x00, 0x0b, 0x00, 0x00, 0x00,
  0x02, 0x00, 0x00, 0x00, 0x0a, 0x00, 0x00, 0x00, 0x03, 0x00, 0x00, 0x00,
  0x62, 0xff, 0xff, 0xff, 0x10, 0x00, 0x00, 0x00, 0x00, 0x00, 0x00, 0x01,
  0x18, 0x00, 0x00, 0x00, 0x1c, 0x00, 0x00, 0x00, 0x54, 0xff, 0xff, 0xff,
  0x00, 0x00, 0x00, 0x01, 0x01, 0x00, 0x00, 0x00, 0x01, 0x00, 0x00, 0x00,
  0x01, 0x00, 0x00, 0x00, 0x0a, 0x00, 0x00, 0x00, 0x03, 0x00, 0x00, 0x00,
  0x09, 0x00, 0x00, 0x00, 0x07, 0x00, 0x00, 0x00, 0x02, 0x00, 0x00, 0x00,
  0x00, 0x00, 0x0e, 0x00, 0x1a, 0x00, 0x14, 0x00, 0x10, 0x00, 0x0c, 0x00,
  0x0b, 0x00, 0x04, 0x00, 0x0e, 0x00, 0x00, 0x00, 0x24, 0x00, 0x00, 0x00,
  0x00, 0x00, 0x00, 0x05, 0x34, 0x00, 0x00, 0x00, 0x38, 0x00, 0x00, 0x00,
  0x01, 0x00, 0x00, 0x00, 0x00, 0x00, 0x0e, 0x00, 0x18, 0x00, 0x17, 0x00,
  0x10, 0x00, 0x0c, 0x00, 0x08, 0x00, 0x04, 0x00, 0x0e, 0x00, 0x00, 0x00,
  0x02, 0x00, 0x00, 0x00, 0x02, 0x00, 0x00, 0x00, 0x02, 0x00, 0x00, 0x00,
  0x02, 0x00, 0x00, 0x00, 0x00, 0x00, 0x00, 0x01, 0x01, 0x00, 0x00, 0x00,
  0x09, 0x00, 0x00, 0x00, 0x01, 0x00, 0x00, 0x00, 0x08, 0x00, 0x00, 0x00,
  0x00, 0x00, 0x0e, 0x00, 0x14, 0x00, 0x00, 0x00, 0x10, 0x00, 0x0c, 0x00,
  0x0b, 0x00, 0x04, 0x00, 0x0e, 0x00, 0x00, 0x00, 0x1c, 0x00, 0x00, 0x00,
  0x00, 0x00, 0x00, 0x01, 0x24, 0x00, 0x00, 0x00, 0x28, 0x00, 0x00, 0x00,
  0x0c, 0x00, 0x10, 0x00, 0x00, 0x00, 0x0c, 0x00, 0x08, 0x00, 0x07, 0x00,
  0x0c, 0x00, 0x00, 0x00, 0x00, 0x00, 0x00, 0x01, 0x01, 0x00, 0x00, 0x00,
  0x01, 0x00, 0x00, 0x00, 0x01, 0x00, 0x00, 0x00, 0x08, 0x00, 0x00, 0x00,
  0x03, 0x00, 0x00, 0x00, 0x00, 0x00, 0x00, 0x00, 0x06, 0x00, 0x00, 0x00,
  0x01, 0x00, 0x00, 0x00, 0x01, 0x00, 0x00, 0x00, 0x0d, 0x00, 0x00, 0x00,
  0x01, 0x00, 0x00, 0x00, 0x00, 0x00, 0x00, 0x00, 0x0e, 0x00, 0x00, 0x00,
  0x3c, 0x09, 0x00, 0x00, 0x48, 0x08, 0x00, 0x00, 0x98, 0x07, 0x00, 0x00,
  0x4c, 0x07, 0x00, 0x00, 0xc8, 0x06, 0x00, 0x00, 0x44, 0x06, 0x00, 0x00,
  0x30, 0x05, 0x00, 0x00, 0x6c, 0x04, 0x00, 0x00, 0x68, 0x03, 0x00, 0x00,
  0xbc, 0x02, 0x00, 0x00, 0xb8, 0x01, 0x00, 0x00, 0x24, 0x01, 0x00, 0x00,
  0x70, 0x00, 0x00, 0x00, 0x04, 0x00, 0x00, 0x00, 0x10, 0xf7, 0xff, 0xff,
  0x18, 0x00, 0x00, 0x00, 0x20, 0x00, 0x00, 0x00, 0x3c, 0x00, 0x00, 0x00,
  0x0e, 0x00, 0x00, 0x00, 0x00, 0x00, 0x00, 0x09, 0x44, 0x00, 0x00, 0x00,
  0x02, 0x00, 0x00, 0x00, 0xff, 0xff, 0xff, 0xff, 0x0a, 0x00, 0x00, 0x00,
  0xfc, 0xf7, 0xff, 0xff, 0x08, 0x00, 0x00, 0x00, 0x10, 0x00, 0x00, 0x00,
  0x01, 0x00, 0x00, 0x00, 0x80, 0xff, 0xff, 0xff, 0xff, 0xff, 0xff, 0xff,
  0x01, 0x00, 0x00, 0x00, 0x00, 0x00, 0x80, 0x3b, 0x0d, 0x00, 0x00, 0x00,
  0x49, 0x64, 0x65, 0x6e, 0x74, 0x69, 0x74, 0x79, 0x5f, 0x69, 0x6e, 0x74,
  0x38, 0x00, 0x00, 0x00, 0x02, 0x00, 0x00, 0x00, 0x01, 0x00, 0x00, 0x00,
  0x0a, 0x00, 0x00, 0x00, 0x78, 0xf7, 0xff, 0xff, 0x18, 0x00, 0x00, 0x00,
  0x20, 0x00, 0x00, 0x00, 0x54, 0x00, 0x00, 0x00, 0x0d, 0x00, 0x00, 0x00,
  0x00, 0x00, 0x00, 0x09, 0x8c, 0x00, 0x00, 0x00, 0x02, 0x00, 0x00, 0x00,
  0xff, 0xff, 0xff, 0xff, 0x0a, 0x00, 0x00, 0x00, 0x5c, 0xf7, 0xff, 0xff,
  0x10, 0x00, 0x00, 0x00, 0x18, 0x00, 0x00, 0x00, 0x1c, 0x00, 0x00, 0x00,
  0x20, 0x00, 0x00, 0x00, 0x01, 0x00, 0x00, 0x00, 0x3a, 0x00, 0x00, 0x00,
  0x00, 0x00, 0x00, 0x00, 0x01, 0x00, 0x00, 0x00, 0x06, 0x73, 0x71, 0x3e,
  0x01, 0x00, 0x00, 0x00, 0x7e, 0x8d, 0x82, 0x41, 0x01, 0x00, 0x00, 0x00,
  0xd4, 0x3a, 0x2f, 0xc2, 0x3e, 0x00, 0x00, 0x00, 0x43, 0x6f, 0x6e, 0x76,
  0x4d, 0x6e, 0x69, 0x73, 0x74, 0x2f, 0x6f, 0x75, 0x74, 0x70, 0x75, 0x74,
  0x5f, 0x73, 0x63, 0x6f, 0x72, 0x65, 0x73, 0x2f, 0x4d, 0x61, 0x74, 0x4d,
  0x75, 0x6c, 0x3b, 0x43, 0x6f, 0x6e, 0x76, 0x4d, 0x6e, 0x69, 0x73, 0x74,
  0x2f, 0x6f, 0x75, 0x74, 0x70, 0x75, 0x74, 0x5f, 0x73, 0x63, 0x6f, 0x72,
  0x65, 0x73, 0x2f, 0x42, 0x69, 0x61, 0x73, 0x41, 0x64, 0x64, 0x00, 0x00,
  0x02, 0x00, 0x00, 0x00, 0x01, 0x00, 0x00, 0x00, 0x0a, 0x00, 0x00, 0x00,
  0x28, 0xf8, 0xff, 0xff, 0x18, 0x00, 0x00, 0x00, 0x20, 0x00, 0x00, 0x00,
  0x58, 0x00, 0x00, 0x00, 0x0c, 0x00, 0x00, 0x00, 0x00, 0x00, 0x00, 0x09,
  0x6c, 0x00, 0x00, 0x00, 0x02, 0x00, 0x00, 0x00, 0xff, 0xff, 0xff, 0xff,
  0x10, 0x03, 0x00, 0x00, 0x0c, 0xf8, 0xff, 0xff, 0x10, 0x00, 0x00, 0x00,
  0x1c, 0x00, 0x00, 0x00, 0x20, 0x00, 0x00, 0x00, 0x24, 0x00, 0x00, 0x00,
  0x01, 0x00, 0x00, 0x00, 0x80, 0xff, 0xff, 0xff, 0xff, 0xff, 0xff, 0xff,
  0x00, 0x00, 0x00, 0x00, 0x01, 0x00, 0x00, 0x00, 0x87, 0xb8, 0xb9, 0x3c,
  0x01, 0x00, 0x00, 0x00, 0xce, 0xfe, 0xb8, 0x40, 0x01, 0x00, 0x00, 0x00,
  0x00, 0x00, 0x00, 0x00, 0x1b, 0x00, 0x00, 0x00, 0x43, 0x6f, 0x6e, 0x76,
  0x4d, 0x6e, 0x69, 0x73, 0x74, 0x2f, 0x66, 0x6c, 0x61, 0x74, 0x74, 0x65,
  0x6e, 0x5f, 0x31, 0x2f, 0x52, 0x65, 0x73, 0x68, 0x61, 0x70, 0x65, 0x00,
  0x02, 0x00, 0x00, 0x00, 0x01, 0x00, 0x00, 0x00, 0x10, 0x03, 0x00, 0x00,
  0xb8, 0xf8, 0xff, 0xff, 0x18, 0x00, 0x00, 0x00, 0x28, 0x00, 0x00, 0x00,
  0x5c, 0x00, 0x00, 0x00, 0x0b, 0x00, 0x00, 0x00, 0x00, 0x00, 0x00, 0x09,
  0xd4, 0x00, 0x00, 0x00, 0x04, 0x00, 0x00, 0x00, 0xff, 0xff, 0xff, 0xff,
  0x0e, 0x00, 0x00, 0x00, 0x0e, 0x00, 0x00, 0x00, 0x04, 0x00, 0x00, 0x00,
  0xa4, 0xf8, 0xff, 0xff, 0x10, 0x00, 0x00, 0x00, 0x18, 0x00, 0x00, 0x00,
  0x1c, 0x00, 0x00, 0x00, 0x20, 0x00, 0x00, 0x00, 0x01, 0x00, 0x00, 0x00,
  0x80, 0xff, 0xff, 0xff, 0xff, 0xff, 0xff, 0xff, 0x01, 0x00, 0x00, 0x00,
  0x87, 0xb8, 0xb9, 0x3c, 0x01, 0x00, 0x00, 0x00, 0xce, 0xfe, 0xb8, 0x40,
  0x01, 0x00, 0x00, 0x00, 0x00, 0x00, 0x00, 0x00, 0x7f, 0x00, 0x00, 0x00,
  0x43, 0x6f, 0x6e, 0x76, 0x4d, 0x6e, 0x69, 0x73, 0x74, 0x2f, 0x63, 0x6f,
  0x6e, 0x76, 0x32, 0x64, 0x5f, 0x33, 0x2f, 0x52, 0x65, 0x6c, 0x75, 0x3b,
  0x43, 0x6f, 0x6e, 0x76, 0x4d, 0x6e, 0x69, 0x73, 0x74, 0x2f, 0x63, 0x6f,
  0x6e, 0x76, 0x32, 0x64, 0x5f, 0x33, 0x2f, 0x42, 0x69, 0x61, 0x73, 0x41,
  0x64, 0x64, 0x3b, 0x43, 0x6f, 0x6e, 0x76, 0x4d, 0x6e, 0x69, 0x73, 0x74,
  0x2f, 0x63, 0x6f, 0x6e, 0x76, 0x32, 0x64, 0x5f, 0x33, 0x2f, 0x43, 0x6f,
  0x6e, 0x76, 0x32, 0x44, 0x3b, 0x43, 0x6f, 0x6e, 0x76, 0x4d, 0x6e, 0x69,
  0x73, 0x74, 0x2f, 0x63, 0x6f, 0x6e, 0x76, 0x32, 0x64, 0x5f, 0x33, 0x2f,
  0x42, 0x69, 0x61, 0x73, 0x41, 0x64, 0x64, 0x2f, 0x52, 0x65, 0x61, 0x64,
  0x56, 0x61, 0x72, 0x69, 0x61, 0x62, 0x6c, 0x65, 0x4f, 0x70, 0x2f, 0x72,
  0x65, 0x73, 0x6f, 0x75, 0x72, 0x63, 0x65, 0x00, 0x04, 0x00, 0x00, 0x00,
  0x01, 0x00, 0x00, 0x00, 0x0e, 0x00, 0x00, 0x00, 0x0e, 0x00, 0x00, 0x00,
  0x04, 0x00, 0x00, 0x00, 0xb8, 0xf9, 0xff, 0xff, 0x18, 0x00, 0x00, 0x00,
  0x28, 0x00, 0x00, 0x00, 0x60, 0x00, 0x00, 0x00, 0x0a, 0x00, 0x00, 0x00,
  0x00, 0x00, 0x00, 0x09, 0x7c, 0x00, 0x00, 0x00, 0x04, 0x00, 0x00, 0x00,
  0xff, 0xff, 0xff, 0xff, 0x0e, 0x00, 0x00, 0x00, 0x0e, 0x00, 0x00, 0x00,
  0x08, 0x00, 0x00, 0x00, 0xa4, 0xf9, 0xff, 0xff, 0x10, 0x00, 0x00, 0x00,
  0x1c, 0x00, 0x00, 0x00, 0x20, 0x00, 0x00, 0x00, 0x24, 0x00, 0x00, 0x00,
  0x01, 0x00, 0x00, 0x00, 0x80, 0xff, 0xff, 0xff, 0xff, 0xff, 0xff, 0xff,
  0x00, 0x00, 0x00, 0x00, 0x01, 0x00, 0x00, 0x00, 0x3a, 0x16, 0x3a, 0x3c,
  0x01, 0x00, 0x00, 0x00, 0x24, 0x5c, 0x39, 0x40, 0x01, 0x00, 0x00, 0x00,
  0x00, 0x00, 0x00, 0x00, 0x21, 0x00, 0x00, 0x00, 0x43, 0x6f, 0x6e, 0x76,
  0x4d, 0x6e, 0x69, 0x73, 0x74, 0x2f, 0x6d, 0x61, 0x78, 0x5f, 0x70, 0x6f,
  0x6f, 0x6c, 0x69, 0x6e, 0x67, 0x32, 0x64, 0x5f, 0x31, 0x2f, 0x4d, 0x61,
  0x78, 0x50, 0x6f, 0x6f, 0x6c, 0x00, 0x00, 0x00, 0x04, 0x00, 0x00, 0x00,
  0x01, 0x00, 0x00, 0x00, 0x0e, 0x00, 0x00, 0x00, 0x0e, 0x00, 0x00, 0x00,
  0x08, 0x00, 0x00, 0x00, 0x60, 0xfa, 0xff, 0xff, 0x18, 0x00, 0x00, 0x00,
  0x28, 0x00, 0x00, 0x00, 0x5c, 0x00, 0x00, 0x00, 0x09, 0x00, 0x00, 0x00,
  0x00, 0x00, 0x00, 0x09, 0xd4, 0x00, 0x00, 0x00, 0x04, 0x00, 0x00, 0x00,
  0xff, 0xff, 0xff, 0xff, 0x1c, 0x00, 0x00, 0x00, 0x1c, 0x00, 0x00, 0x00,
  0x08, 0x00, 0x00, 0x00, 0x4c, 0xfa, 0xff, 0xff, 0x10, 0x00, 0x00, 0x00,
  0x18, 0x00, 0x00, 0x00, 0x1c, 0x00, 0x00, 0x00, 0x20, 0x00, 0x00, 0x00,
  0x01, 0x00, 0x00, 0x00, 0x80, 0xff, 0xff, 0xff, 0xff, 0xff, 0xff, 0xff,
  0x01, 0x00, 0x00, 0x00, 0x3a, 0x16, 0x3a, 0x3c, 0x01, 0x00, 0x00, 0x00,
  0x24, 0x5c, 0x39, 0x40, 0x01, 0x00, 0x00, 0x00, 0x00, 0x00, 0x00, 0x00,
  0x7f, 0x00, 0x00, 0x00, 0x43, 0x6f, 0x6e, 0x76, 0x4d, 0x6e, 0x69, 0x73,
  0x74, 0x2f, 0x63, 0x6f, 0x6e, 0x76, 0x32, 0x64, 0x5f, 0x32, 0x2f, 0x52,
  0x65, 0x6c, 0x75, 0x3b, 0x43, 0x6f, 0x6e, 0x76, 0x4d, 0x6e, 0x69, 0x73,
  0x74, 0x2f, 0x63, 0x6f, 0x6e, 0x76, 0x32, 0x64, 0x5f, 0x32, 0x2f, 0x42,
  0x69, 0x61, 0x73, 0x41, 0x64, 0x64, 0x3b, 0x43, 0x6f, 0x6e, 0x76, 0x4d,
  0x6e, 0x69, 0x73, 0x74, 0x2f, 0x63, 0x6f, 0x6e, 0x76, 0x32, 0x64, 0x5f,
  0x32, 0x2f, 0x43, 0x6f, 0x6e, 0x76, 0x32, 0x44, 0x3b, 0x43, 0x6f, 0x6e,
  0x76, 0x4d, 0x6e, 0x69, 0x73, 0x74, 0x2f, 0x63, 0x6f, 0x6e, 0x76, 0x32,
  0x64, 0x5f, 0x32, 0x2f, 0x42, 0x69, 0x61, 0x73, 0x41, 0x64, 0x64, 0x2f,
  0x52, 0x65, 0x61, 0x64, 0x56, 0x61, 0x72, 0x69, 0x61, 0x62, 0x6c, 0x65,
  0x4f, 0x70, 0x2f, 0x72, 0x65, 0x73, 0x6f, 0x75, 0x72, 0x63, 0x65, 0x00,
  0x04, 0x00, 0x00, 0x00, 0x01, 0x00, 0x00, 0x00, 0x1c, 0x00, 0x00, 0x00,
  0x1c, 0x00, 0x00, 0x00, 0x08, 0x00, 0x00, 0x00, 0x4a, 0xfc, 0xff, 0xff,
  0x14, 0x00, 0x00, 0x00, 0x84, 0x00, 0x00, 0x00, 0x08, 0x00, 0x00, 0x00,
  0x00, 0x00, 0x00, 0x09, 0x98, 0x00, 0x00, 0x00, 0x34, 0xfb, 0xff, 0xff,
  0x10, 0x00, 0x00, 0x00, 0x30, 0x00, 0x00, 0x00, 0x40, 0x00, 0x00, 0x00,
  0x50, 0x00, 0x00, 0x00, 0x04, 0x00, 0x00, 0x00, 0x00, 0x00, 0x00, 0x00,
  0x00, 0x00, 0x00, 0x00, 0x00, 0x00, 0x00, 0x00, 0x00, 0x00, 0x00, 0x00,
  0x00, 0x00, 0x00, 0x00, 0x00, 0x00, 0x00, 0x00, 0x00, 0x00, 0x00, 0x00,
  0x00, 0x00, 0x00, 0x00, 0x04, 0x00, 0x00, 0x00, 0x08, 0xdc, 0x9a, 0x3b,
  0xf1, 0xe3, 0x12, 0x3c, 0x95, 0x84, 0xb7, 0x3b, 0xb4, 0x74, 0xf8, 0x3b,
  0x04, 0x00, 0x00, 0x00, 0x26, 0xd1, 0xe4, 0x3e, 0x7d, 0xd4, 0x53, 0x3f,
  0xbe, 0x3e, 0xfc, 0x3e, 0x59, 0x0b, 0x2f, 0x3f, 0x04, 0x00, 0x00, 0x00,
  0x50, 0xa6, 0x19, 0xbf, 0x29, 0xbe, 0x91, 0xbf, 0x8c, 0x15, 0x36, 0xbf,
  0xcb, 0x83, 0x76, 0xbf, 0x19, 0x00, 0x00, 0x00, 0x43, 0x6f, 0x6e, 0x76,
  0x4d, 0x6e, 0x69, 0x73, 0x74, 0x2f, 0x63, 0x6f, 0x6e, 0x76, 0x32, 0x64,
  0x5f, 0x33, 0x2f, 0x43, 0x6f, 0x6e, 0x76, 0x32, 0x44, 0x00, 0x00, 0x00,
  0x04, 0x00, 0x00, 0x00, 0x04, 0x00, 0x00, 0x00, 0x03, 0x00, 0x00, 0x00,
  0x03, 0x00, 0x00, 0x00, 0x08, 0x00, 0x00, 0x00, 0x0a, 0xfd, 0xff, 0xff,
  0x14, 0x00, 0x00, 0x00, 0xd4, 0x00, 0x00, 0x00, 0x07, 0x00, 0x00, 0x00,
  0x00, 0x00, 0x00, 0x09, 0xe8, 0x00, 0x00, 0x00, 0xf4, 0xfb, 0xff, 0xff,
  0x10, 0x00, 0x00, 0x00, 0x50, 0x00, 0x00, 0x00, 0x70, 0x00, 0x00, 0x00,
  0x90, 0x00, 0x00, 0x00, 0x08, 0x00, 0x00, 0x00, 0x00, 0x00, 0x00, 0x00,
  0x00, 0x00, 0x00, 0x00, 0x00, 0x00, 0x00, 0x00, 0x00, 0x00, 0x00, 0x00,
  0x00, 0x00, 0x00, 0x00, 0x00, 0x00, 0x00, 0x00, 0x00, 0x00, 0x00, 0x00,
  0x00, 0x00, 0x00, 0x00, 0x00, 0x00, 0x00, 0x00, 0x00, 0x00, 0x00, 0x00,
  0x00, 0x00, 0x00, 0x00, 0x00, 0x00, 0x00, 0x00, 0x00, 0x00, 0x00, 0x00,
  0x00, 0x00, 0x00, 0x00, 0x00, 0x00, 0x00, 0x00, 0x00, 0x00, 0x00, 0x00,
  0x08, 0x00, 0x00, 0x00, 0xd3, 0x7f, 0xae, 0x3b, 0xbe, 0xe9, 0x82, 0x3b,
  0xd7, 0x62, 0x12, 0x3b, 0xbe, 0xff, 0x7c, 0x3b, 0xd4, 0xf5, 0xa3, 0x3b,
  0x35, 0xb2, 0xa6, 0x3b, 0x0b, 0x66, 0x5b, 0x3b, 0x67, 0x22, 0xa4, 0x3b,
  0x08, 0x00, 0x00, 0x00, 0xd3, 0x22, 0x2d, 0x3f, 0xeb, 0xe3, 0x01, 0x3f,
  0x4d, 0x1d, 0x87, 0x3d, 0xbf, 0x05, 0xfb, 0x3e, 0xe8, 0xad, 0x22, 0x3f,
  0x9e, 0x0a, 0x05, 0x3f, 0xf7, 0x64, 0xbb, 0x3e, 0x22, 0xda, 0x22, 0x3f,
  0x08, 0x00, 0x00, 0x00, 0x1f, 0x57, 0x1d, 0xbf, 0xbc, 0xcb, 0x99, 0xbe,
  0x11, 0x3e, 0x91, 0xbe, 0xbc, 0x0a, 0xe5, 0xbe, 0xab, 0x80, 0x01, 0xbf,
  0xd1, 0x64, 0x25, 0xbf, 0x3f, 0xaf, 0xd9, 0xbe, 0x0f, 0xd3, 0x99, 0xbe,
  0x19, 0x00, 0x00, 0x00, 0x43, 0x6f, 0x6e, 0x76, 0x4d, 0x6e, 0x69, 0x73,
  0x74, 0x2f, 0x63, 0x6f, 0x6e, 0x76, 0x32, 0x64, 0x5f, 0x32, 0x2f, 0x43,
  0x6f, 0x6e, 0x76, 0x32, 0x44, 0x00, 0x00, 0x00, 0x04, 0x00, 0x00, 0x00,
  0x08, 0x00, 0x00, 0x00, 0x03, 0x00, 0x00, 0x00, 0x03, 0x00, 0x00, 0x00,
  0x01, 0x00, 0x00, 0x00, 0x1a, 0xfe, 0xff, 0xff, 0x14, 0x00, 0x00, 0x00,
  0x48, 0x00, 0x00, 0x00, 0x06, 0x00, 0x00, 0x00, 0x00, 0x00, 0x00, 0x09,
  0x60, 0x00, 0x00, 0x00, 0x04, 0xfd, 0xff, 0xff, 0x10, 0x00, 0x00, 0x00,
  0x18, 0x00, 0x00, 0x00, 0x1c, 0x00, 0x00, 0x00, 0x20, 0x00, 0x00, 0x00,
  0x01, 0x00, 0x00, 0x00, 0x00, 0x00, 0x00, 0x00, 0x00, 0x00, 0x00, 0x00,
  0x01, 0x00, 0x00, 0x00, 0xad, 0x29, 0x66, 0x3c, 0x01, 0x00, 0x00, 0x00,
  0xd8, 0x51, 0x9d, 0x3f, 0x01, 0x00, 0x00, 0x00, 0x5a, 0x5d, 0xe4, 0xbf,
  0x1e, 0x00, 0x00, 0x00, 0x43, 0x6f, 0x6e, 0x76, 0x4d, 0x6e, 0x69, 0x73,
  0x74, 0x2f, 0x6f, 0x75, 0x74, 0x70, 0x75, 0x74, 0x5f, 0x73, 0x63, 0x6f,
  0x72, 0x65, 0x73, 0x2f, 0x4d, 0x61, 0x74, 0x4d, 0x75, 0x6c, 0x00, 0x00,
  0x02, 0x00, 0x00, 0x00, 0x0a, 0x00, 0x00, 0x00, 0x10, 0x03, 0x00, 0x00,
  0x9a, 0xfe, 0xff, 0xff, 0x14, 0x00, 0x00, 0x00, 0x34, 0x00, 0x00, 0x00,
  0x05, 0x00, 0x00, 0x00, 0x00, 0x00, 0x00, 0x02, 0x64, 0x00, 0x00, 0x00,
  0x8c, 0xfe, 0xff, 0xff, 0x08, 0x00, 0x00, 0x00, 0x14, 0x00, 0x00, 0x00,
  0x01, 0x00, 0x00, 0x00, 0x00, 0x00, 0x00, 0x00, 0x00, 0x00, 0x00, 0x00,
  0x00, 0x00, 0x00, 0x00, 0x01, 0x00, 0x00, 0x00, 0x05, 0xfa, 0xa6, 0x39,
  0x37, 0x00, 0x00, 0x00, 0x43, 0x6f, 0x6e, 0x76, 0x4d, 0x6e, 0x69, 0x73,
  0x74, 0x2f, 0x6f, 0x75, 0x74, 0x70, 0x75, 0x74, 0x5f, 0x73, 0x63, 0x6f,
  0x72, 0x65, 0x73, 0x2f, 0x42, 0x69, 0x61, 0x73, 0x41, 0x64, 0x64, 0x2f,
  0x52, 0x65, 0x61, 0x64, 0x56, 0x61, 0x72, 0x69, 0x61, 0x62, 0x6c, 0x65,
  0x4f, 0x70, 0x2f, 0x72, 0x65, 0x73, 0x6f, 0x75, 0x72, 0x63, 0x65, 0x00,
  0x01, 0x00, 0x00, 0x00, 0x0a, 0x00, 0x00, 0x00, 0x1a, 0xff, 0xff, 0xff,
  0x18, 0x00, 0x00, 0x00, 0x18, 0x00, 0x00, 0x00, 0x04, 0x00, 0x00, 0x00,
  0x00, 0x00, 0x00, 0x02, 0x2c, 0x00, 0x00, 0x00, 0x04, 0x00, 0x04, 0x00,
  0x04, 0x00, 0x00, 0x00, 0x19, 0x00, 0x00, 0x00, 0x43, 0x6f, 0x6e, 0x76,
  0x4d, 0x6e, 0x69, 0x73, 0x74, 0x2f, 0x66, 0x6c, 0x61, 0x74, 0x74, 0x65,
  0x6e, 0x5f, 0x31, 0x2f, 0x43, 0x6f, 0x6e, 0x73, 0x74, 0x00, 0x00, 0x00,
  0x01, 0x00, 0x00, 0x00, 0x02, 0x00, 0x00, 0x00, 0x62, 0xff, 0xff, 0xff,
  0x14, 0x00, 0x00, 0x00, 0x54, 0x00, 0x00, 0x00, 0x03, 0x00, 0x00, 0x00,
  0x00, 0x00, 0x00, 0x02, 0x80, 0x00, 0x00, 0x00, 0x54, 0xff, 0xff, 0xff,
  0x08, 0x00, 0x00, 0x00, 0x28, 0x00, 0x00, 0x00, 0x04, 0x00, 0x00, 0x00,
  0x00, 0x00, 0x00, 0x00, 0x00, 0x00, 0x00, 0x00, 0x00, 0x00, 0x00, 0x00,
  0x00, 0x00, 0x00, 0x00, 0x00, 0x00, 0x00, 0x00, 0x00, 0x00, 0x00, 0x00,
  0x00, 0x00, 0x00, 0x00, 0x00, 0x00, 0x00, 0x00, 0x04, 0x00, 0x00, 0x00,
  0xa0, 0x22, 0x61, 0x38, 0xbc, 0x8c, 0xd5, 0x38, 0x43, 0x66, 0x85, 0x38,
  0x5d, 0x9a, 0xb4, 0x38, 0x32, 0x00, 0x00, 0x00, 0x43, 0x6f, 0x6e, 0x76,
  0x4d, 0x6e, 0x69, 0x73, 0x74, 0x2f, 0x63, 0x6f, 0x6e, 0x76, 0x32, 0x64,
  0x5f, 0x33, 0x2f, 0x42, 0x69, 0x61, 0x73, 0x41, 0x64, 0x64, 0x2f, 0x52,
  0x65, 0x61, 0x64, 0x56, 0x61, 0x72, 0x69, 0x61, 0x62, 0x6c, 0x65, 0x4f,
  0x70, 0x2f, 0x72, 0x65, 0x73, 0x6f, 0x75, 0x72, 0x63, 0x65, 0x00, 0x00,
  0x01, 0x00, 0x00, 0x00, 0x04, 0x00, 0x00, 0x00, 0x00, 0x00, 0x0e, 0x00,
  0x18, 0x00, 0x14, 0x00, 0x13, 0x00, 0x0c, 0x00, 0x08, 0x00, 0x04, 0x00,
  0x0e, 0x00, 0x00, 0x00, 0x20, 0x00, 0x00, 0x00, 0x94, 0x00, 0x00, 0x00,
  0x02, 0x00, 0x00, 0x00, 0x00, 0x00, 0x00, 0x02, 0xc0, 0x00, 0x00, 0x00,
  0x0c, 0x00, 0x0c, 0x00, 0x00, 0x00, 0x00, 0x00, 0x08, 0x00, 0x04, 0x00,
  0x0c, 0x00, 0x00, 0x00, 0x08, 0x00, 0x00, 0x00, 0x4c, 0x00, 0x00, 0x00,
  0x08, 0x00, 0x00, 0x00, 0x00, 0x00, 0x00, 0x00, 0x00, 0x00, 0x00, 0x00,
  0x00, 0x00, 0x00, 0x00, 0x00, 0x00, 0x00, 0x00, 0x00, 0x00, 0x00, 0x00,
  0x00, 0x00, 0x00, 0x00, 0x00, 0x00, 0x00, 0x00, 0x00, 0x00, 0x00, 0x00,
  0x00, 0x00, 0x00, 0x00, 0x00, 0x00, 0x00, 0x00, 0x00, 0x00, 0x00, 0x00,
  0x00, 0x00, 0x00, 0x00, 0x00, 0x00, 0x00, 0x00, 0x00, 0x00, 0x00, 0x00,
  0x00, 0x00, 0x00, 0x00, 0x00, 0x00, 0x00, 0x00, 0x00, 0x00, 0x00, 0x00,
  0x08, 0x00, 0x00, 0x00, 0xd3, 0x7f, 0x2e, 0x38, 0xbe, 0xe9, 0x02, 0x38,
  0xd7, 0x62, 0x92, 0x37, 0xbe, 0xff, 0xfc, 0x37, 0xd4, 0xf5, 0x23, 0x38,
  0x35, 0xb2, 0x26, 0x38, 0x0b, 0x66, 0xdb, 0x37, 0x67, 0x22, 0x24, 0x38,
  0x32, 0x00, 0x00, 0x00, 0x43, 0x6f, 0x6e, 0x76, 0x4d, 0x6e, 0x69, 0x73,
  0x74, 0x2f, 0x63, 0x6f, 0x6e, 0x76, 0x32, 0x64, 0x5f, 0x32, 0x2f, 0x42,
  0x69, 0x61, 0x73, 0x41, 0x64, 0x64, 0x2f, 0x52, 0x65, 0x61, 0x64, 0x56,
  0x61, 0x72, 0x69, 0x61, 0x62, 0x6c, 0x65, 0x4f, 0x70, 0x2f, 0x72, 0x65,
  0x73, 0x6f, 0x75, 0x72, 0x63, 0x65, 0x00, 0x00, 0x01, 0x00, 0x00, 0x00,
  0x08, 0x00, 0x00, 0x00, 0x14, 0x00, 0x1c, 0x00, 0x18, 0x00, 0x17, 0x00,
  0x10, 0x00, 0x0c, 0x00, 0x08, 0x00, 0x00, 0x00, 0x00, 0x00, 0x04, 0x00,
  0x14, 0x00, 0x00, 0x00, 0x18, 0x00, 0x00, 0x00, 0x34, 0x00, 0x00, 0x00,
  0x6c, 0x00, 0x00, 0x00, 0x01, 0x00, 0x00, 0x00, 0x00, 0x00, 0x00, 0x09,
  0x78, 0x00, 0x00, 0x00, 0x04, 0x00, 0x00, 0x00, 0xff, 0xff, 0xff, 0xff,
  0x1c, 0x00, 0x00, 0x00, 0x1c, 0x00, 0x00, 0x00, 0x01, 0x00, 0x00, 0x00,
  0x0c, 0x00, 0x14, 0x00, 0x10, 0x00, 0x0c, 0x00, 0x08, 0x00, 0x04, 0x00,
  0x0c, 0x00, 0x00, 0x00, 0x10, 0x00, 0x00, 0x00, 0x1c, 0x00, 0x00, 0x00,
  0x20, 0x00, 0x00, 0x00, 0x24, 0x00, 0x00, 0x00, 0x01, 0x00, 0x00, 0x00,
  0x00, 0x00, 0x00, 0x00, 0x00, 0x00, 0x00, 0x00, 0x00, 0x00, 0x00, 0x00,
  0x01, 0x00, 0x00, 0x00, 0x00, 0x00, 0x00, 0x3c, 0x01, 0x00, 0x00, 0x00,
  0x00, 0x00, 0x7e, 0x3f, 0x01, 0x00, 0x00, 0x00, 0x00, 0x00, 0x80, 0xbf,
  0x10, 0x00, 0x00, 0x00, 0x69, 0x6e, 0x70, 0x75, 0x74, 0x5f, 0x69, 0x6d,
  0x61, 0x67, 0x65, 0x5f, 0x69, 0x6e, 0x74, 0x38, 0x00, 0x00, 0x00, 0x00,
  0x04, 0x00, 0x00, 0x00, 0x01, 0x00, 0x00, 0x00, 0x1c, 0x00, 0x00, 0x00,
  0x1c, 0x00, 0x00, 0x00, 0x01, 0x00, 0x00, 0x00, 0x07, 0x00, 0x00, 0x00,
  0x8c, 0x00, 0x00, 0x00, 0x6c, 0x00, 0x00, 0x00, 0x5c, 0x00, 0x00, 0x00,
  0x3c, 0x00, 0x00, 0x00, 0x28, 0x00, 0x00, 0x00, 0x18, 0x00, 0x00, 0x00,
  0x04, 0x00, 0x00, 0x00, 0x9c, 0xff, 0xff, 0xff, 0x06, 0x00, 0x00, 0x00,
  0x02, 0x00, 0x00, 0x00, 0x00, 0x00, 0x00, 0x06, 0xd4, 0xff, 0xff, 0xff,
  0x72, 0x00, 0x00, 0x00, 0x00, 0x00, 0x00, 0x72, 0xb8, 0xff, 0xff, 0xff,
  0x19, 0x00, 0x00, 0x00, 0x02, 0x00, 0x00, 0x00, 0x00, 0x00, 0x00, 0x19,
  0xc8, 0xff, 0xff, 0xff, 0x09, 0x00, 0x00, 0x00, 0x04, 0x00, 0x00, 0x00,
  0x00, 0x00, 0x00, 0x09, 0x0c, 0x00, 0x0c, 0x00, 0x0b, 0x00, 0x00, 0x00,
  0x00, 0x00, 0x04, 0x00, 0x0c, 0x00, 0x00, 0x00, 0x16, 0x00, 0x00, 0x00,
  0x00, 0x00, 0x00, 0x16, 0xf0, 0xff, 0xff, 0xff, 0x11, 0x00, 0x00, 0x00,
  0x02, 0x00, 0x00, 0x00, 0x00, 0x00, 0x00, 0x11, 0x0c, 0x00, 0x10, 0x00,
  0x0f, 0x00, 0x00, 0x00, 0x08, 0x00, 0x04, 0x00, 0x0c, 0x00, 0x00, 0x00,
  0x03, 0x00, 0x00, 0x00, 0x03, 0x00, 0x00, 0x00, 0x00, 0x00, 0x00, 0x03
};
unsigned int conv_mnist_quant_tflite_len = 11832;
